{
  "version": "1.0",
  "truncation": null,
  "padding": null,
  "added_tokens": [
    {
      "id": 0,
      "content": "<pad>",
      "single_word": false,
      "lstrip": false,
      "rstrip": false,
      "normalized": false,
      "special": true
    },
    {
      "id": 1,
      "content": "<eos>",
      "single_word": false,
      "lstrip": false,
      "rstrip": false,
      "normalized": false,
      "special": true
    },
    {
      "id": 2,
      "content": "<bos>",
      "single_word": false,
      "lstrip": false,
      "rstrip": false,
      "normalized": false,
      "special": true
    },
    {
      "id": 3,
      "content": "<unk>",
      "single_word": false,
      "lstrip": false,
      "rstrip": false,
      "normalized": false,
      "special": true
    },
    {
      "id": 4,
      "content": "<mask>",
      "single_word": false,
      "lstrip": false,
      "rstrip": false,
      "normalized": false,
      "special": false
    },
    {
      "id": 5,
      "content": "<2mass>",
      "single_word": false,
      "lstrip": false,
      "rstrip": false,
      "normalized": false,
      "special": false
    },
    {
      "id": 6,
      "content": "[@BOS@]",
      "single_word": false,
      "lstrip": false,
      "rstrip": false,
      "normalized": false,
      "special": false
    },
    {
      "id": 7,
      "content": "<unused0>",
      "single_word": false,
      "lstrip": false,
      "rstrip": false,
      "normalized": false,
      "special": false
    },
    {
      "id": 8,
      "content": "<unused1>",
      "single_word": false,
      "lstrip": false,
      "rstrip": false,
      "normalized": false,
      "special": false
    },
    {
      "id": 9,
      "content": "<unused2>",
      "single_word": false,
      "lstrip": false,
      "rstrip": false,
      "normalized": false,
      "special": false
    },
    {
      "id": 10,
      "content": "<unused3>",
      "single_word": false,
      "lstrip": false,
      "rstrip": false,
      "normalized": false,
      "special": false
    },
    {
      "id": 11,
      "content": "<unused4>",
      "single_word": false,
      "lstrip": false,
      "rstrip": false,
      "normalized": false,
      "special": false
    },
    {
      "id": 12,
      "content": "<unused5>",
      "single_word": false,
      "lstrip": false,
      "rstrip": false,
      "normalized": false,
      "special": false
    },
    {
      "id": 13,
      "content": "<unused6>",
      "single_word": false,
      "lstrip": false,
      "rstrip": false,
      "normalized": false,
      "special": false
    },
    {
      "id": 14,
      "content": "<unused7>",
      "single_word": false,
      "lstrip": false,
      "rstrip": false,
      "normalized": false,
      "special": false
    },
    {
      "id": 15,
      "content": "<unused8>",
      "single_word": false,
      "lstrip": false,
      "rstrip": false,
      "normalized": false,
      "special": false
    },
    {
      "id": 16,
      "content": "<unused9>",
      "single_word": false,
      "lstrip": false,
      "rstrip": false,
      "normalized": false,
      "special": false
    },
    {
      "id": 17,
      "content": "<unused10>",
      "single_word": false,
      "lstrip": false,
      "rstrip": false,
      "normalized": false,
      "special": false
    },
    {
      "id": 18,
      "content": "<unused11>",
      "single_word": false,
      "lstrip": false,
      "rstrip": false,
      "normalized": false,
      "special": false
    },
    {
      "id": 19,
      "content": "<unused12>",
      "single_word": false,
      "lstrip": false,
      "rstrip": false,
      "normalized": false,
      "special": false
    },
    {
      "id": 20,
      "content": "<unused13>",
      "single_word": false,
      "lstrip": false,
      "rstrip": false,
      "normalized": false,
      "special": false
    },
    {
      "id": 21,
      "content": "<unused14>",
      "single_word": false,
      "lstrip": false,
      "rstrip": false,
      "normalized": false,
      "special": false
    },
    {
      "id": 22,
      "content": "<unused15>",
      "single_word": false,
      "lstrip": false,
      "rstrip": false,
      "normalized": false,
      "special": false
    },
    {
      "id": 23,
      "content": "<unused16>",
      "single_word": false,
      "lstrip": false,
      "rstrip": false,
      "normalized": false,
      "special": false
    },
    {
      "id": 24,
      "content": "<unused17>",
      "single_word": false,
      "lstrip": false,
      "rstrip": false,
      "normalized": false,
      "special": false
    },
    {
      "id": 25,
      "content": "<unused18>",
      "single_word": false,
      "lstrip": false,
      "rstrip": false,
      "normalized": false,
      "special": false
    },
    {
      "id": 26,
      "content": "<unused19>",
      "single_word": false,
      "lstrip": false,
      "rstrip": false,
      "normalized": false,
      "special": false
    },
    {
      "id": 27,
      "content": "<unused20>",
      "single_word": false,
      "lstrip": false,
      "rstrip": false,
      "normalized": false,
      "special": false
    },
    {
      "id": 28,
      "content": "<unused21>",
      "single_word": false,
      "lstrip": false,
      "rstrip": false,
      "normalized": false,
      "special": false
    },
    {
      "id": 29,
      "content": "<unused22>",
      "single_word": false,
      "lstrip": false,
      "rstrip": false,
      "normalized": false,
      "special": false
    },
    {
      "id": 30,
      "content": "<unused23>",
      "single_word": false,
      "lstrip": false,
      "rstrip": false,
      "normalized": false,
      "special": false
    },
    {
      "id": 31,
      "content": "<unused24>",
      "single_word": false,
      "lstrip": false,
      "rstrip": false,
      "normalized": false,
      "special": false
    },
    {
      "id": 32,
      "content": "<unused25>",
      "single_word": false,
      "lstrip": false,
      "rstrip": false,
      "normalized": false,
      "special": false
    },
    {
      "id": 33,
      "content": "<unused26>",
      "single_word": false,
      "lstrip": false,
      "rstrip": false,
      "normalized": false,
      "special": false
    },
    {
      "id": 34,
      "content": "<unused27>",
      "single_word": false,
      "lstrip": false,
      "rstrip": false,
      "normalized": false,
      "special": false
    },
    {
      "id": 35,
      "content": "<unused28>",
      "single_word": false,
      "lstrip": false,
      "rstrip": false,
      "normalized": false,
      "special": false
    },
    {
      "id": 36,
      "content": "<unused29>",
      "single_word": false,
      "lstrip": false,
      "rstrip": false,
      "normalized": false,
      "special": false
    },
    {
      "id": 37,
      "content": "<unused30>",
      "single_word": false,
      "lstrip": false,
      "rstrip": false,
      "normalized": false,
      "special": false
    },
    {
      "id": 38,
      "content": "<unused31>",
      "single_word": false,
      "lstrip": false,
      "rstrip": false,
      "normalized": false,
      "special": false
    },
    {
      "id": 39,
      "content": "<unused32>",
      "single_word": false,
      "lstrip": false,
      "rstrip": false,
      "normalized": false,
      "special": false
    },
    {
      "id": 40,
      "content": "<unused33>",
      "single_word": false,
      "lstrip": false,
      "rstrip": false,
      "normalized": false,
      "special": false
    },
    {
      "id": 41,
      "content": "<unused34>",
      "single_word": false,
      "lstrip": false,
      "rstrip": false,
      "normalized": false,
      "special": false
    },
    {
      "id": 42,
      "content": "<unused35>",
      "single_word": false,
      "lstrip": false,
      "rstrip": false,
      "normalized": false,
      "special": false
    },
    {
      "id": 43,
      "content": "<unused36>",
      "single_word": false,
      "lstrip": false,
      "rstrip": false,
      "normalized": false,
      "special": false
    },
    {
      "id": 44,
      "content": "<unused37>",
      "single_word": false,
      "lstrip": false,
      "rstrip": false,
      "normalized": false,
      "special": false
    },
    {
      "id": 45,
      "content": "<unused38>",
      "single_word": false,
      "lstrip": false,
      "rstrip": false,
      "normalized": false,
      "special": false
    },
    {
      "id": 46,
      "content": "<unused39>",
      "single_word": false,
      "lstrip": false,
      "rstrip": false,
      "normalized": false,
      "special": false
    },
    {
      "id": 47,
      "content": "<unused40>",
      "single_word": false,
      "lstrip": false,
      "rstrip": false,
      "normalized": false,
      "special": false
    },
    {
      "id": 48,
      "content": "<unused41>",
      "single_word": false,
      "lstrip": false,
      "rstrip": false,
      "normalized": false,
      "special": false
    },
    {
      "id": 49,
      "content": "<unused42>",
      "single_word": false,
      "lstrip": false,
      "rstrip": false,
      "normalized": false,
      "special": false
    },
    {
      "id": 50,
      "content": "<unused43>",
      "single_word": false,
      "lstrip": false,
      "rstrip": false,
      "normalized": false,
      "special": false
    },
    {
      "id": 51,
      "content": "<unused44>",
      "single_word": false,
      "lstrip": false,
      "rstrip": false,
      "normalized": false,
      "special": false
    },
    {
      "id": 52,
      "content": "<unused45>",
      "single_word": false,
      "lstrip": false,
      "rstrip": false,
      "normalized": false,
      "special": false
    },
    {
      "id": 53,
      "content": "<unused46>",
      "single_word": false,
      "lstrip": false,
      "rstrip": false,
      "normalized": false,
      "special": false
    },
    {
      "id": 54,
      "content": "<unused47>",
      "single_word": false,
      "lstrip": false,
      "rstrip": false,
      "normalized": false,
      "special": false
    },
    {
      "id": 55,
      "content": "<unused48>",
      "single_word": false,
      "lstrip": false,
      "rstrip": false,
      "normalized": false,
      "special": false
    },
    {
      "id": 56,
      "content": "<unused49>",
      "single_word": false,
      "lstrip": false,
      "rstrip": false,
      "normalized": false,
      "special": false
    },
    {
      "id": 57,
      "content": "<unused50>",
      "single_word": false,
      "lstrip": false,
      "rstrip": false,
      "normalized": false,
      "special": false
    },
    {
      "id": 58,
      "content": "<unused51>",
      "single_word": false,
      "lstrip": false,
      "rstrip": false,
      "normalized": false,
      "special": false
    },
    {
      "id": 59,
      "content": "<unused52>",
      "single_word": false,
      "lstrip": false,
      "rstrip": false,
      "normalized": false,
      "special": false
    },
    {
      "id": 60,
      "content": "<unused53>",
      "single_word": false,
      "lstrip": false,
      "rstrip": false,
      "normalized": false,
      "special": false
    },
    {
      "id": 61,
      "content": "<unused54>",
      "single_word": false,
      "lstrip": false,
      "rstrip": false,
      "normalized": false,
      "special": false
    },
    {
      "id": 62,
      "content": "<unused55>",
      "single_word": false,
      "lstrip": false,
      "rstrip": false,
      "normalized": false,
      "special": false
    },
    {
      "id": 63,
      "content": "<unused56>",
      "single_word": false,
      "lstrip": false,
      "rstrip": false,
      "normalized": false,
      "special": false
    },
    {
      "id": 64,
      "content": "<unused57>",
      "single_word": false,
      "lstrip": false,
      "rstrip": false,
      "normalized": false,
      "special": false
    },
    {
      "id": 65,
      "content": "<unused58>",
      "single_word": false,
      "lstrip": false,
      "rstrip": false,
      "normalized": false,
      "special": false
    },
    {
      "id": 66,
      "content": "<unused59>",
      "single_word": false,
      "lstrip": false,
      "rstrip": false,
      "normalized": false,
      "special": false
    },
    {
      "id": 67,
      "content": "<unused60>",
      "single_word": false,
      "lstrip": false,
      "rstrip": false,
      "normalized": false,
      "special": false
    },
    {
      "id": 68,
      "content": "<unused61>",
      "single_word": false,
      "lstrip": false,
      "rstrip": false,
      "normalized": false,
      "special": false
    },
    {
      "id": 69,
      "content": "<unused62>",
      "single_word": false,
      "lstrip": false,
      "rstrip": false,
      "normalized": false,
      "special": false
    },
    {
      "id": 70,
      "content": "<unused63>",
      "single_word": false,
      "lstrip": false,
      "rstrip": false,
      "normalized": false,
      "special": false
    },
    {
      "id": 71,
      "content": "<unused64>",
      "single_word": false,
      "lstrip": false,
      "rstrip": false,
      "normalized": false,
      "special": false
    },
    {
      "id": 72,
      "content": "<unused65>",
      "single_word": false,
      "lstrip": false,
      "rstrip": false,
      "normalized": false,
      "special": false
    },
    {
      "id": 73,
      "content": "<unused66>",
      "single_word": false,
      "lstrip": false,
      "rstrip": false,
      "normalized": false,
      "special": false
    },
    {
      "id": 74,
      "content": "<unused67>",
      "single_word": false,
      "lstrip": false,
      "rstrip": false,
      "normalized": false,
      "special": false
    },
    {
      "id": 75,
      "content": "<unused68>",
      "single_word": false,
      "lstrip": false,
      "rstrip": false,
      "normalized": false,
      "special": false
    },
    {
      "id": 76,
      "content": "<unused69>",
      "single_word": false,
      "lstrip": false,
      "rstrip": false,
      "normalized": false,
      "special": false
    },
    {
      "id": 77,
      "content": "<unused70>",
      "single_word": false,
      "lstrip": false,
      "rstrip": false,
      "normalized": false,
      "special": false
    },
    {
      "id": 78,
      "content": "<unused71>",
      "single_word": false,
      "lstrip": false,
      "rstrip": false,
      "normalized": false,
      "special": false
    },
    {
      "id": 79,
      "content": "<unused72>",
      "single_word": false,
      "lstrip": false,
      "rstrip": false,
      "normalized": false,
      "special": false
    },
    {
      "id": 80,
      "content": "<unused73>",
      "single_word": false,
      "lstrip": false,
      "rstrip": false,
      "normalized": false,
      "special": false
    },
    {
      "id": 81,
      "content": "<unused74>",
      "single_word": false,
      "lstrip": false,
      "rstrip": false,
      "normalized": false,
      "special": false
    },
    {
      "id": 82,
      "content": "<unused75>",
      "single_word": false,
      "lstrip": false,
      "rstrip": false,
      "normalized": false,
      "special": false
    },
    {
      "id": 83,
      "content": "<unused76>",
      "single_word": false,
      "lstrip": false,
      "rstrip": false,
      "normalized": false,
      "special": false
    },
    {
      "id": 84,
      "content": "<unused77>",
      "single_word": false,
      "lstrip": false,
      "rstrip": false,
      "normalized": false,
      "special": false
    },
    {
      "id": 85,
      "content": "<unused78>",
      "single_word": false,
      "lstrip": false,
      "rstrip": false,
      "normalized": false,
      "special": false
    },
    {
      "id": 86,
      "content": "<unused79>",
      "single_word": false,
      "lstrip": false,
      "rstrip": false,
      "normalized": false,
      "special": false
    },
    {
      "id": 87,
      "content": "<unused80>",
      "single_word": false,
      "lstrip": false,
      "rstrip": false,
      "normalized": false,
      "special": false
    },
    {
      "id": 88,
      "content": "<unused81>",
      "single_word": false,
      "lstrip": false,
      "rstrip": false,
      "normalized": false,
      "special": false
    },
    {
      "id": 89,
      "content": "<unused82>",
      "single_word": false,
      "lstrip": false,
      "rstrip": false,
      "normalized": false,
      "special": false
    },
    {
      "id": 90,
      "content": "<unused83>",
      "single_word": false,
      "lstrip": false,
      "rstrip": false,
      "normalized": false,
      "special": false
    },
    {
      "id": 91,
      "content": "<unused84>",
      "single_word": false,
      "lstrip": false,
      "rstrip": false,
      "normalized": false,
      "special": false
    },
    {
      "id": 92,
      "content": "<unused85>",
      "single_word": false,
      "lstrip": false,
      "rstrip": false,
      "normalized": false,
      "special": false
    },
    {
      "id": 93,
      "content": "<unused86>",
      "single_word": false,
      "lstrip": false,
      "rstrip": false,
      "normalized": false,
      "special": false
    },
    {
      "id": 94,
      "content": "<unused87>",
      "single_word": false,
      "lstrip": false,
      "rstrip": false,
      "normalized": false,
      "special": false
    },
    {
      "id": 95,
      "content": "<unused88>",
      "single_word": false,
      "lstrip": false,
      "rstrip": false,
      "normalized": false,
      "special": false
    },
    {
      "id": 96,
      "content": "<unused89>",
      "single_word": false,
      "lstrip": false,
      "rstrip": false,
      "normalized": false,
      "special": false
    },
    {
      "id": 97,
      "content": "<unused90>",
      "single_word": false,
      "lstrip": false,
      "rstrip": false,
      "normalized": false,
      "special": false
    },
    {
      "id": 98,
      "content": "<unused91>",
      "single_word": false,
      "lstrip": false,
      "rstrip": false,
      "normalized": false,
      "special": false
    },
    {
      "id": 99,
      "content": "<unused92>",
      "single_word": false,
      "lstrip": false,
      "rstrip": false,
      "normalized": false,
      "special": false
    },
    {
      "id": 100,
      "content": "<unused93>",
      "single_word": false,
      "lstrip": false,
      "rstrip": false,
      "normalized": false,
      "special": false
    },
    {
      "id": 101,
      "content": "<unused94>",
      "single_word": false,
      "lstrip": false,
      "rstrip": false,
      "normalized": false,
      "special": false
    },
    {
      "id": 102,
      "content": "<unused95>",
      "single_word": false,
      "lstrip": false,
      "rstrip": false,
      "normalized": false,
      "special": false
    },
    {
      "id": 103,
      "content": "<unused96>",
      "single_word": false,
      "lstrip": false,
      "rstrip": false,
      "normalized": false,
      "special": false
    },
    {
      "id": 104,
      "content": "<unused97>",
      "single_word": false,
      "lstrip": false,
      "rstrip": false,
      "normalized": false,
      "special": false
    },
    {
      "id": 105,
      "content": "<unused98>",
      "single_word": false,
      "lstrip": false,
      "rstrip": false,
      "normalized": false,
      "special": false
    },
    {
      "id": 106,
      "content": "<start_of_turn>",
      "single_word": false,
      "lstrip": false,
      "rstrip": false,
      "normalized": false,
      "special": true
    },
    {
      "id": 107,
      "content": "<end_of_turn>",
      "single_word": false,
      "lstrip": false,
      "rstrip": false,
      "normalized": false,
      "special": true
    },
    {
      "id": 108,
      "content": "\n",
      "single_word": false,
      "lstrip": false,
      "rstrip": false,
      "normalized": false,
      "special": false
    },
    {
      "id": 109,
      "content": "\n\n",
      "single_word": false,
      "lstrip": false,
      "rstrip": false,
      "normalized": false,
      "special": false
    },
    {
      "id": 110,
      "content": "\n\n\n",
      "single_word": false,
      "lstrip": false,
      "rstrip": false,
      "normalized": false,
      "special": false
    },
    {
      "id": 111,
      "content": "\n\n\n\n",
      "single_word": false,
      "lstrip": false,
      "rstrip": false,
      "normalized": false,
      "special": false
    },
    {
      "id": 112,
      "content": "\n\n\n\n\n",
      "single_word": false,
      "lstrip": false,
      "rstrip": false,
      "normalized": false,
      "special": false
    },
    {
      "id": 113,
      "content": "\n\n\n\n\n\n",
      "single_word": false,
      "lstrip": false,
      "rstrip": false,
      "normalized": false,
      "special": false
    },
    {
      "id": 114,
      "content": "\n\n\n\n\n\n\n",
      "single_word": false,
      "lstrip": false,
      "rstrip": false,
      "normalized": false,
      "special": false
    },
    {
      "id": 115,
      "content": "\n\n\n\n\n\n\n\n",
      "single_word": false,
      "lstrip": false,
      "rstrip": false,
      "normalized": false,
      "special": false
    },
    {
      "id": 116,
      "content": "\n\n\n\n\n\n\n\n\n",
      "single_word": false,
      "lstrip": false,
      "rstrip": false,
      "normalized": false,
      "special": false
    },
    {
      "id": 117,
      "content": "\n\n\n\n\n\n\n\n\n\n",
      "single_word": false,
      "lstrip": false,
      "rstrip": false,
      "normalized": false,
      "special": false
    },
    {
      "id": 118,
      "content": "\n\n\n\n\n\n\n\n\n\n\n",
      "single_word": false,
      "lstrip": false,
      "rstrip": false,
      "normalized": false,
      "special": false
    },
    {
      "id": 119,
      "content": "\n\n\n\n\n\n\n\n\n\n\n\n",
      "single_word": false,
      "lstrip": false,
      "rstrip": false,
      "normalized": false,
      "special": false
    },
    {
      "id": 120,
      "content": "\n\n\n\n\n\n\n\n\n\n\n\n\n",
      "single_word": false,
      "lstrip": false,
      "rstrip": false,
      "normalized": false,
      "special": false
    },
    {
      "id": 121,
      "content": "\n\n\n\n\n\n\n\n\n\n\n\n\n\n",
      "single_word": false,
      "lstrip": false,
      "rstrip": false,
      "normalized": false,
      "special": false
    },
    {
      "id": 122,
      "content": "\n\n\n\n\n\n\n\n\n\n\n\n\n\n\n",
      "single_word": false,
      "lstrip": false,
      "rstrip": false,
      "normalized": false,
      "special": false
    },
    {
      "id": 123,
      "content": "\n\n\n\n\n\n\n\n\n\n\n\n\n\n\n\n",
      "single_word": false,
      "lstrip": false,
      "rstrip": false,
      "normalized": false,
      "special": false
    },
    {
      "id": 124,
      "content": "\n\n\n\n\n\n\n\n\n\n\n\n\n\n\n\n\n",
      "single_word": false,
      "lstrip": false,
      "rstrip": false,
      "normalized": false,
      "special": false
    },
    {
      "id": 125,
      "content": "\n\n\n\n\n\n\n\n\n\n\n\n\n\n\n\n\n\n",
      "single_word": false,
      "lstrip": false,
      "rstrip": false,
      "normalized": false,
      "special": false
    },
    {
      "id": 126,
      "content": "\n\n\n\n\n\n\n\n\n\n\n\n\n\n\n\n\n\n\n",
      "single_word": false,
      "lstrip": false,
      "rstrip": false,
      "normalized": false,
      "special": false
    },
    {
      "id": 127,
      "content": "\n\n\n\n\n\n\n\n\n\n\n\n\n\n\n\n\n\n\n\n",
      "single_word": false,
      "lstrip": false,
      "rstrip": false,
      "normalized": false,
      "special": false
    },
    {
      "id": 128,
      "content": "\n\n\n\n\n\n\n\n\n\n\n\n\n\n\n\n\n\n\n\n\n",
      "single_word": false,
      "lstrip": false,
      "rstrip": false,
      "normalized": false,
      "special": false
    },
    {
      "id": 129,
      "content": "\n\n\n\n\n\n\n\n\n\n\n\n\n\n\n\n\n\n\n\n\n\n",
      "single_word": false,
      "lstrip": false,
      "rstrip": false,
      "normalized": false,
      "special": false
    },
    {
      "id": 130,
      "content": "\n\n\n\n\n\n\n\n\n\n\n\n\n\n\n\n\n\n\n\n\n\n\n",
      "single_word": false,
      "lstrip": false,
      "rstrip": false,
      "normalized": false,
      "special": false
    },
    {
      "id": 131,
      "content": "\n\n\n\n\n\n\n\n\n\n\n\n\n\n\n\n\n\n\n\n\n\n\n\n",
      "single_word": false,
      "lstrip": false,
      "rstrip": false,
      "normalized": false,
      "special": false
    },
    {
      "id": 132,
      "content": "\n\n\n\n\n\n\n\n\n\n\n\n\n\n\n\n\n\n\n\n\n\n\n\n\n",
      "single_word": false,
      "lstrip": false,
      "rstrip": false,
      "normalized": false,
      "special": false
    },
    {
      "id": 133,
      "content": "\n\n\n\n\n\n\n\n\n\n\n\n\n\n\n\n\n\n\n\n\n\n\n\n\n\n",
      "single_word": false,
      "lstrip": false,
      "rstrip": false,
      "normalized": false,
      "special": false
    },
    {
      "id": 134,
      "content": "\n\n\n\n\n\n\n\n\n\n\n\n\n\n\n\n\n\n\n\n\n\n\n\n\n\n\n",
      "single_word": false,
      "lstrip": false,
      "rstrip": false,
      "normalized": false,
      "special": false
    },
    {
      "id": 135,
      "content": "\n\n\n\n\n\n\n\n\n\n\n\n\n\n\n\n\n\n\n\n\n\n\n\n\n\n\n\n",
      "single_word": false,
      "lstrip": false,
      "rstrip": false,
      "normalized": false,
      "special": false
    },
    {
      "id": 136,
      "content": "\n\n\n\n\n\n\n\n\n\n\n\n\n\n\n\n\n\n\n\n\n\n\n\n\n\n\n\n\n",
      "single_word": false,
      "lstrip": false,
      "rstrip": false,
      "normalized": false,
      "special": false
    },
    {
      "id": 137,
      "content": "\n\n\n\n\n\n\n\n\n\n\n\n\n\n\n\n\n\n\n\n\n\n\n\n\n\n\n\n\n\n",
      "single_word": false,
      "lstrip": false,
      "rstrip": false,
      "normalized": false,
      "special": false
    },
    {
      "id": 138,
      "content": "\n\n\n\n\n\n\n\n\n\n\n\n\n\n\n\n\n\n\n\n\n\n\n\n\n\n\n\n\n\n\n",
      "single_word": false,
      "lstrip": false,
      "rstrip": false,
      "normalized": false,
      "special": false
    },
    {
      "id": 139,
      "content": "▁▁",
      "single_word": false,
      "lstrip": false,
      "rstrip": false,
      "normalized": false,
      "special": false
    },
    {
      "id": 140,
      "content": "▁▁▁",
      "single_word": false,
      "lstrip": false,
      "rstrip": false,
      "normalized": false,
      "special": false
    },
    {
      "id": 141,
      "content": "▁▁▁▁",
      "single_word": false,
      "lstrip": false,
      "rstrip": false,
      "normalized": false,
      "special": false
    },
    {
      "id": 142,
      "content": "▁▁▁▁▁",
      "single_word": false,
      "lstrip": false,
      "rstrip": false,
      "normalized": false,
      "special": false
    },
    {
      "id": 143,
      "content": "▁▁▁▁▁▁",
      "single_word": false,
      "lstrip": false,
      "rstrip": false,
      "normalized": false,
      "special": false
    },
    {
      "id": 144,
      "content": "▁▁▁▁▁▁▁",
      "single_word": false,
      "lstrip": false,
      "rstrip": false,
      "normalized": false,
      "special": false
    },
    {
      "id": 145,
      "content": "▁▁▁▁▁▁▁▁",
      "single_word": false,
      "lstrip": false,
      "rstrip": false,
      "normalized": false,
      "special": false
    },
    {
      "id": 146,
      "content": "▁▁▁▁▁▁▁▁▁",
      "single_word": false,
      "lstrip": false,
      "rstrip": false,
      "normalized": false,
      "special": false
    },
    {
      "id": 147,
      "content": "▁▁▁▁▁▁▁▁▁▁",
      "single_word": false,
      "lstrip": false,
      "rstrip": false,
      "normalized": false,
      "special": false
    },
    {
      "id": 148,
      "content": "▁▁▁▁▁▁▁▁▁▁▁",
      "single_word": false,
      "lstrip": false,
      "rstrip": false,
      "normalized": false,
      "special": false
    },
    {
      "id": 149,
      "content": "▁▁▁▁▁▁▁▁▁▁▁▁",
      "single_word": false,
      "lstrip": false,
      "rstrip": false,
      "normalized": false,
      "special": false
    },
    {
      "id": 150,
      "content": "▁▁▁▁▁▁▁▁▁▁▁▁▁",
      "single_word": false,
      "lstrip": false,
      "rstrip": false,
      "normalized": false,
      "special": false
    },
    {
      "id": 151,
      "content": "▁▁▁▁▁▁▁▁▁▁▁▁▁▁",
      "single_word": false,
      "lstrip": false,
      "rstrip": false,
      "normalized": false,
      "special": false
    },
    {
      "id": 152,
      "content": "▁▁▁▁▁▁▁▁▁▁▁▁▁▁▁",
      "single_word": false,
      "lstrip": false,
      "rstrip": false,
      "normalized": false,
      "special": false
    },
    {
      "id": 153,
      "content": "▁▁▁▁▁▁▁▁▁▁▁▁▁▁▁▁",
      "single_word": false,
      "lstrip": false,
      "rstrip": false,
      "normalized": false,
      "special": false
    },
    {
      "id": 154,
      "content": "▁▁▁▁▁▁▁▁▁▁▁▁▁▁▁▁▁",
      "single_word": false,
      "lstrip": false,
      "rstrip": false,
      "normalized": false,
      "special": false
    },
    {
      "id": 155,
      "content": "▁▁▁▁▁▁▁▁▁▁▁▁▁▁▁▁▁▁",
      "single_word": false,
      "lstrip": false,
      "rstrip": false,
      "normalized": false,
      "special": false
    },
    {
      "id": 156,
      "content": "▁▁▁▁▁▁▁▁▁▁▁▁▁▁▁▁▁▁▁",
      "single_word": false,
      "lstrip": false,
      "rstrip": false,
      "normalized": false,
      "special": false
    },
    {
      "id": 157,
      "content": "▁▁▁▁▁▁▁▁▁▁▁▁▁▁▁▁▁▁▁▁",
      "single_word": false,
      "lstrip": false,
      "rstrip": false,
      "normalized": false,
      "special": false
    },
    {
      "id": 158,
      "content": "▁▁▁▁▁▁▁▁▁▁▁▁▁▁▁▁▁▁▁▁▁",
      "single_word": false,
      "lstrip": false,
      "rstrip": false,
      "normalized": false,
      "special": false
    },
    {
      "id": 159,
      "content": "▁▁▁▁▁▁▁▁▁▁▁▁▁▁▁▁▁▁▁▁▁▁",
      "single_word": false,
      "lstrip": false,
      "rstrip": false,
      "normalized": false,
      "special": false
    },
    {
      "id": 160,
      "content": "▁▁▁▁▁▁▁▁▁▁▁▁▁▁▁▁▁▁▁▁▁▁▁",
      "single_word": false,
      "lstrip": false,
      "rstrip": false,
      "normalized": false,
      "special": false
    },
    {
      "id": 161,
      "content": "▁▁▁▁▁▁▁▁▁▁▁▁▁▁▁▁▁▁▁▁▁▁▁▁",
      "single_word": false,
      "lstrip": false,
      "rstrip": false,
      "normalized": false,
      "special": false
    },
    {
      "id": 162,
      "content": "▁▁▁▁▁▁▁▁▁▁▁▁▁▁▁▁▁▁▁▁▁▁▁▁▁",
      "single_word": false,
      "lstrip": false,
      "rstrip": false,
      "normalized": false,
      "special": false
    },
    {
      "id": 163,
      "content": "▁▁▁▁▁▁▁▁▁▁▁▁▁▁▁▁▁▁▁▁▁▁▁▁▁▁",
      "single_word": false,
      "lstrip": false,
      "rstrip": false,
      "normalized": false,
      "special": false
    },
    {
      "id": 164,
      "content": "▁▁▁▁▁▁▁▁▁▁▁▁▁▁▁▁▁▁▁▁▁▁▁▁▁▁▁",
      "single_word": false,
      "lstrip": false,
      "rstrip": false,
      "normalized": false,
      "special": false
    },
    {
      "id": 165,
      "content": "▁▁▁▁▁▁▁▁▁▁▁▁▁▁▁▁▁▁▁▁▁▁▁▁▁▁▁▁",
      "single_word": false,
      "lstrip": false,
      "rstrip": false,
      "normalized": false,
      "special": false
    },
    {
      "id": 166,
      "content": "▁▁▁▁▁▁▁▁▁▁▁▁▁▁▁▁▁▁▁▁▁▁▁▁▁▁▁▁▁",
      "single_word": false,
      "lstrip": false,
      "rstrip": false,
      "normalized": false,
      "special": false
    },
    {
      "id": 167,
      "content": "▁▁▁▁▁▁▁▁▁▁▁▁▁▁▁▁▁▁▁▁▁▁▁▁▁▁▁▁▁▁",
      "single_word": false,
      "lstrip": false,
      "rstrip": false,
      "normalized": false,
      "special": false
    },
    {
      "id": 168,
      "content": "▁▁▁▁▁▁▁▁▁▁▁▁▁▁▁▁▁▁▁▁▁▁▁▁▁▁▁▁▁▁▁",
      "single_word": false,
      "lstrip": false,
      "rstrip": false,
      "normalized": false,
      "special": false
    },
    {
      "id": 169,
      "content": "<table>",
      "single_word": false,
      "lstrip": false,
      "rstrip": false,
      "normalized": false,
      "special": false
    },
    {
      "id": 170,
      "content": "<caption>",
      "single_word": false,
      "lstrip": false,
      "rstrip": false,
      "normalized": false,
      "special": false
    },
    {
      "id": 171,
      "content": "<thead>",
      "single_word": false,
      "lstrip": false,
      "rstrip": false,
      "normalized": false,
      "special": false
    },
    {
      "id": 172,
      "content": "<tbody>",
      "single_word": false,
      "lstrip": false,
      "rstrip": false,
      "normalized": false,
      "special": false
    },
    {
      "id": 173,
      "content": "<tfoot>",
      "single_word": false,
      "lstrip": false,
      "rstrip": false,
      "normalized": false,
      "special": false
    },
    {
      "id": 174,
      "content": "<tr>",
      "single_word": false,
      "lstrip": false,
      "rstrip": false,
      "normalized": false,
      "special": false
    },
    {
      "id": 175,
      "content": "<th>",
      "single_word": false,
      "lstrip": false,
      "rstrip": false,
      "normalized": false,
      "special": false
    },
    {
      "id": 176,
      "content": "<td>",
      "single_word": false,
      "lstrip": false,
      "rstrip": false,
      "normalized": false,
      "special": false
    },
    {
      "id": 177,
      "content": "</table>",
      "single_word": false,
      "lstrip": false,
      "rstrip": false,
      "normalized": false,
      "special": false
    },
    {
      "id": 178,
      "content": "</caption>",
      "single_word": false,
      "lstrip": false,
      "rstrip": false,
      "normalized": false,
      "special": false
    },
    {
      "id": 179,
      "content": "</thead>",
      "single_word": false,
      "lstrip": false,
      "rstrip": false,
      "normalized": false,
      "special": false
    },
    {
      "id": 180,
      "content": "</tbody>",
      "single_word": false,
      "lstrip": false,
      "rstrip": false,
      "normalized": false,
      "special": false
    },
    {
      "id": 181,
      "content": "</tfoot>",
      "single_word": false,
      "lstrip": false,
      "rstrip": false,
      "normalized": false,
      "special": false
    },
    {
      "id": 182,
      "content": "</tr>",
      "single_word": false,
      "lstrip": false,
      "rstrip": false,
      "normalized": false,
      "special": false
    },
    {
      "id": 183,
      "content": "</th>",
      "single_word": false,
      "lstrip": false,
      "rstrip": false,
      "normalized": false,
      "special": false
    },
    {
      "id": 184,
      "content": "</td>",
      "single_word": false,
      "lstrip": false,
      "rstrip": false,
      "normalized": false,
      "special": false
    },
    {
      "id": 185,
      "content": "<h1>",
      "single_word": false,
      "lstrip": false,
      "rstrip": false,
      "normalized": false,
      "special": false
    },
    {
      "id": 186,
      "content": "<h2>",
      "single_word": false,
      "lstrip": false,
      "rstrip": false,
      "normalized": false,
      "special": false
    },
    {
      "id": 187,
      "content": "<h3>",
      "single_word": false,
      "lstrip": false,
      "rstrip": false,
      "normalized": false,
      "special": false
    },
    {
      "id": 188,
      "content": "<h4>",
      "single_word": false,
      "lstrip": false,
      "rstrip": false,
      "normalized": false,
      "special": false
    },
    {
      "id": 189,
      "content": "<h5>",
      "single_word": false,
      "lstrip": false,
      "rstrip": false,
      "normalized": false,
      "special": false
    },
    {
      "id": 190,
      "content": "<h6>",
      "single_word": false,
      "lstrip": false,
      "rstrip": false,
      "normalized": false,
      "special": false
    },
    {
      "id": 191,
      "content": "<blockquote>",
      "single_word": false,
      "lstrip": false,
      "rstrip": false,
      "normalized": false,
      "special": false
    },
    {
      "id": 192,
      "content": "</h1>",
      "single_word": false,
      "lstrip": false,
      "rstrip": false,
      "normalized": false,
      "special": false
    },
    {
      "id": 193,
      "content": "</h2>",
      "single_word": false,
      "lstrip": false,
      "rstrip": false,
      "normalized": false,
      "special": false
    },
    {
      "id": 194,
      "content": "</h3>",
      "single_word": false,
      "lstrip": false,
      "rstrip": false,
      "normalized": false,
      "special": false
    },
    {
      "id": 195,
      "content": "</h4>",
      "single_word": false,
      "lstrip": false,
      "rstrip": false,
      "normalized": false,
      "special": false
    },
    {
      "id": 196,
      "content": "</h5>",
      "single_word": false,
      "lstrip": false,
      "rstrip": false,
      "normalized": false,
      "special": false
    },
    {
      "id": 197,
      "content": "</h6>",
      "single_word": false,
      "lstrip": false,
      "rstrip": false,
      "normalized": false,
      "special": false
    },
    {
      "id": 198,
      "content": "</blockquote>",
      "single_word": false,
      "lstrip": false,
      "rstrip": false,
      "normalized": false,
      "special": false
    },
    {
      "id": 199,
      "content": "<strong>",
      "single_word": false,
      "lstrip": false,
      "rstrip": false,
      "normalized": false,
      "special": false
    },
    {
      "id": 200,
      "content": "<em>",
      "single_word": false,
      "lstrip": false,
      "rstrip": false,
      "normalized": false,
      "special": false
    },
    {
      "id": 201,
      "content": "<b>",
      "single_word": false,
      "lstrip": false,
      "rstrip": false,
      "normalized": false,
      "special": false
    },
    {
      "id": 202,
      "content": "<i>",
      "single_word": false,
      "lstrip": false,
      "rstrip": false,
      "normalized": false,
      "special": false
    },
    {
      "id": 203,
      "content": "<u>",
      "single_word": false,
      "lstrip": false,
      "rstrip": false,
      "normalized": false,
      "special": false
    },
    {
      "id": 204,
      "content": "<s>",
      "single_word": false,
      "lstrip": false,
      "rstrip": false,
      "normalized": false,
      "special": false
    },
    {
      "id": 205,
      "content": "<sub>",
      "single_word": false,
      "lstrip": false,
      "rstrip": false,
      "normalized": false,
      "special": false
    },
    {
      "id": 206,
      "content": "<sup>",
      "single_word": false,
      "lstrip": false,
      "rstrip": false,
      "normalized": false,
      "special": false
    },
    {
      "id": 207,
      "content": "<code>",
      "single_word": false,
      "lstrip": false,
      "rstrip": false,
      "normalized": false,
      "special": false
    },
    {
      "id": 208,
      "content": "</strong>",
      "single_word": false,
      "lstrip": false,
      "rstrip": false,
      "normalized": false,
      "special": false
    },
    {
      "id": 209,
      "content": "</em>",
      "single_word": false,
      "lstrip": false,
      "rstrip": false,
      "normalized": false,
      "special": false
    },
    {
      "id": 210,
      "content": "</b>",
      "single_word": false,
      "lstrip": false,
      "rstrip": false,
      "normalized": false,
      "special": false
    },
    {
      "id": 211,
      "content": "</i>",
      "single_word": false,
      "lstrip": false,
      "rstrip": false,
      "normalized": false,
      "special": false
    },
    {
      "id": 212,
      "content": "</u>",
      "single_word": false,
      "lstrip": false,
      "rstrip": false,
      "normalized": false,
      "special": false
    },
    {
      "id": 213,
      "content": "</s>",
      "single_word": false,
      "lstrip": false,
      "rstrip": false,
      "normalized": false,
      "special": false
    },
    {
      "id": 214,
      "content": "</sub>",
      "single_word": false,
      "lstrip": false,
      "rstrip": false,
      "normalized": false,
      "special": false
    },
    {
      "id": 215,
      "content": "</sup>",
      "single_word": false,
      "lstrip": false,
      "rstrip": false,
      "normalized": false,
      "special": false
    },
    {
      "id": 216,
      "content": "</code>",
      "single_word": false,
      "lstrip": false,
      "rstrip": false,
      "normalized": false,
      "special": false
    }
  ],
  "normalizer": {
    "type": "Replace",
    "pattern": {
      "String": " "
    },
    "content": "▁"
  },
  "pre_tokenizer": null,
  "post_processor": {
    "type": "TemplateProcessing",
    "single": [
      {
        "SpecialToken": {
          "id": "<bos>",
          "type_id": 0
        }
      },
      {
        "Sequence": {
          "id": "A",
          "type_id": 0
        }
      }
    ],
    "pair": [
      {
        "SpecialToken": {
          "id": "<bos>",
          "type_id": 0
        }
      },
      {
        "Sequence": {
          "id": "A",
          "type_id": 0
        }
      },
      {
        "SpecialToken": {
          "id": "<bos>",
          "type_id": 1
        }
      },
      {
        "Sequence": {
          "id": "B",
          "type_id": 1
        }
      }
    ],
    "special_tokens": {
      "<bos>": {
        "id": "<bos>",
        "ids": [
          2
        ],
        "tokens": [
          "<bos>"
        ]
      }
    }
  },
  "decoder": {
    "type": "Sequence",
    "decoders": [
      {
        "type": "Replace",
        "pattern": {
          "String": "▁"
        },
        "content": " "
      },
      {
        "type": "ByteFallback"
      },
      {
        "type": "Fuse"
      }
    ]
  },
  "model": {
    "type": "BPE",
    "dropout": null,
    "unk_token": "<unk>",
    "continuing_subword_prefix": null,
    "end_of_word_suffix": null,
    "fuse_unk": true,
    "byte_fallback": true,
    "ignore_merges": false,
    "vocab": {
      "<pad>": 0,
      "<eos>": 1,
      "<bos>": 2,
      "<unk>": 3,
      "<mask>": 4,
      "<2mass>": 5,
      "[@BOS@]": 6,
      "<unused0>": 7,
      "<unused1>": 8,
      "<unused2>": 9,
      "<unused3>": 10,
      "<unused4>": 11,
      "<unused5>": 12,
      "<unused6>": 13,
      "<unused7>": 14,
      "<unused8>": 15,
      "<unused9>": 16,
      "<unused10>": 17,
      "<unused11>": 18,
      "<unused12>": 19,
      "<unused13>": 20,
      "<unused14>": 21,
      "<unused15>": 22,
      "<unused16>": 23,
      "<unused17>": 24,
      "<unused18>": 25,
      "<unused19>": 26,
      "<unused20>": 27,
      "<unused21>": 28,
      "<unused22>": 29,
      "<unused23>": 30,
      "<unused24>": 31,
      "<unused25>": 32,
      "<unused26>": 33,
      "<unused27>": 34,
      "<unused28>": 35,
      "<unused29>": 36,
      "<unused30>": 37,
      "<unused31>": 38,
      "<unused32>": 39,
      "<unused33>": 40,
      "<unused34>": 41,
      "<unused35>": 42,
      "<unused36>": 43,
      "<unused37>": 44,
      "<unused38>": 45,
      "<unused39>": 46,
      "<unused40>": 47,
      "<unused41>": 48,
      "<unused42>": 49,
      "<unused43>": 50,
      "<unused44>": 51,
      "<unused45>": 52,
      "<unused46>": 53,
      "<unused47>": 54,
      "<unused48>": 55,
      "<unused49>": 56,
      "<unused50>": 57,
      "<unused51>": 58,
      "<unused52>": 59,
      "<unused53>": 60,
      "<unused54>": 61,
      "<unused55>": 62,
      "<unused56>": 63,
      "<unused57>": 64,
      "<unused58>": 65,
      "<unused59>": 66,
      "<unused60>": 67,
      "<unused61>": 68,
      "<unused62>": 69,
      "<unused63>": 70,
      "<unused64>": 71,
      "<unused65>": 72,
      "<unused66>": 73,
      "<unused67>": 74,
      "<unused68>": 75,
      "<unused69>": 76,
      "<unused70>": 77,
      "<unused71>": 78,
      "<unused72>": 79,
      "<unused73>": 80,
      "<unused74>": 81,
      "<unused75>": 82,
      "<unused76>": 83,
      "<unused77>": 84,
      "<unused78>": 85,
      "<unused79>": 86,
      "<unused80>": 87,
      "<unused81>": 88,
      "<unused82>": 89,
      "<unused83>": 90,
      "<unused84>": 91,
      "<unused85>": 92,
      "<unused86>": 93,
      "<unused87>": 94,
      "<unused88>": 95,
      "<unused89>": 96,
      "<unused90>": 97,
      "<unused91>": 98,
      "<unused92>": 99,
      "<unused93>": 100,
      "<unused94>": 101,
      "<unused95>": 102,
      "<unused96>": 103,
      "<unused97>": 104,
      "<unused98>": 105,
      "<start_of_turn>": 106,
      "<end_of_turn>": 107,
      "\n": 108,
      "\n\n": 109,
      "\n\n\n": 110,
      "\n\n\n\n": 111,
      "\n\n\n\n\n": 112,
      "\n\n\n\n\n\n": 113,
      "\n\n\n\n\n\n\n": 114,
      "\n\n\n\n\n\n\n\n": 115,
      "\n\n\n\n\n\n\n\n\n": 116,
      "\n\n\n\n\n\n\n\n\n\n": 117,
      "\n\n\n\n\n\n\n\n\n\n\n": 118,
      "\n\n\n\n\n\n\n\n\n\n\n\n": 119,
      "\n\n\n\n\n\n\n\n\n\n\n\n\n": 120,
      "\n\n\n\n\n\n\n\n\n\n\n\n\n\n": 121,
      "\n\n\n\n\n\n\n\n\n\n\n\n\n\n\n": 122,
      "\n\n\n\n\n\n\n\n\n\n\n\n\n\n\n\n": 123,
      "\n\n\n\n\n\n\n\n\n\n\n\n\n\n\n\n\n": 124,
      "\n\n\n\n\n\n\n\n\n\n\n\n\n\n\n\n\n\n": 125,
      "\n\n\n\n\n\n\n\n\n\n\n\n\n\n\n\n\n\n\n": 126,
      "\n\n\n\n\n\n\n\n\n\n\n\n\n\n\n\n\n\n\n\n": 127,
      "\n\n\n\n\n\n\n\n\n\n\n\n\n\n\n\n\n\n\n\n\n": 128,
      "\n\n\n\n\n\n\n\n\n\n\n\n\n\n\n\n\n\n\n\n\n\n": 129,
      "\n\n\n\n\n\n\n\n\n\n\n\n\n\n\n\n\n\n\n\n\n\n\n": 130,
      "\n\n\n\n\n\n\n\n\n\n\n\n\n\n\n\n\n\n\n\n\n\n\n\n": 131,
      "\n\n\n\n\n\n\n\n\n\n\n\n\n\n\n\n\n\n\n\n\n\n\n\n\n": 132,
      "\n\n\n\n\n\n\n\n\n\n\n\n\n\n\n\n\n\n\n\n\n\n\n\n\n\n": 133,
      "\n\n\n\n\n\n\n\n\n\n\n\n\n\n\n\n\n\n\n\n\n\n\n\n\n\n\n": 134,
      "\n\n\n\n\n\n\n\n\n\n\n\n\n\n\n\n\n\n\n\n\n\n\n\n\n\n\n\n": 135,
      "\n\n\n\n\n\n\n\n\n\n\n\n\n\n\n\n\n\n\n\n\n\n\n\n\n\n\n\n\n": 136,
      "\n\n\n\n\n\n\n\n\n\n\n\n\n\n\n\n\n\n\n\n\n\n\n\n\n\n\n\n\n\n": 137,
      "\n\n\n\n\n\n\n\n\n\n\n\n\n\n\n\n\n\n\n\n\n\n\n\n\n\n\n\n\n\n\n": 138,
      "▁▁": 139,
      "▁▁▁": 140,
      "▁▁▁▁": 141,
      "▁▁▁▁▁": 142,
      "▁▁▁▁▁▁": 143,
      "▁▁▁▁▁▁▁": 144,
      "▁▁▁▁▁▁▁▁": 145,
      "▁▁▁▁▁▁▁▁▁": 146,
      "▁▁▁▁▁▁▁▁▁▁": 147,
      "▁▁▁▁▁▁▁▁▁▁▁": 148,
      "▁▁▁▁▁▁▁▁▁▁▁▁": 149,
      "▁▁▁▁▁▁▁▁▁▁▁▁▁": 150,
      "▁▁▁▁▁▁▁▁▁▁▁▁▁▁": 151,
      "▁▁▁▁▁▁▁▁▁▁▁▁▁▁▁": 152,
      "▁▁▁▁▁▁▁▁▁▁▁▁▁▁▁▁": 153,
      "▁▁▁▁▁▁▁▁▁▁▁▁▁▁▁▁▁": 154,
      "▁▁▁▁▁▁▁▁▁▁▁▁▁▁▁▁▁▁": 155,
      "▁▁▁▁▁▁▁▁▁▁▁▁▁▁▁▁▁▁▁": 156,
      "▁▁▁▁▁▁▁▁▁▁▁▁▁▁▁▁▁▁▁▁": 157,
      "▁▁▁▁▁▁▁▁▁▁▁▁▁▁▁▁▁▁▁▁▁": 158,
      "▁▁▁▁▁▁▁▁▁▁▁▁▁▁▁▁▁▁▁▁▁▁": 159,
      "▁▁▁▁▁▁▁▁▁▁▁▁▁▁▁▁▁▁▁▁▁▁▁": 160,
      "▁▁▁▁▁▁▁▁▁▁▁▁▁▁▁▁▁▁▁▁▁▁▁▁": 161,
      "▁▁▁▁▁▁▁▁▁▁▁▁▁▁▁▁▁▁▁▁▁▁▁▁▁": 162,
      "▁▁▁▁▁▁▁▁▁▁▁▁▁▁▁▁▁▁▁▁▁▁▁▁▁▁": 163,
      "▁▁▁▁▁▁▁▁▁▁▁▁▁▁▁▁▁▁▁▁▁▁▁▁▁▁▁": 164,
      "▁▁▁▁▁▁▁▁▁▁▁▁▁▁▁▁▁▁▁▁▁▁▁▁▁▁▁▁": 165,
      "▁▁▁▁▁▁▁▁▁▁▁▁▁▁▁▁▁▁▁▁▁▁▁▁▁▁▁▁▁": 166,
      "▁▁▁▁▁▁▁▁▁▁▁▁▁▁▁▁▁▁▁▁▁▁▁▁▁▁▁▁▁▁": 167,
      "▁▁▁▁▁▁▁▁▁▁▁▁▁▁▁▁▁▁▁▁▁▁▁▁▁▁▁▁▁▁▁": 168,
      "<table>": 169,
      "<caption>": 170,
      "<thead>": 171,
      "<tbody>": 172,
      "<tfoot>": 173,
      "<tr>": 174,
      "<th>": 175,
      "<td>": 176,
      "</table>": 177,
      "</caption>": 178,
      "</thead>": 179,
      "</tbody>": 180,
      "</tfoot>": 181,
      "</tr>": 182,
      "</th>": 183,
      "</td>": 184,
      "<h1>": 185,
      "<h2>": 186,
      "<h3>": 187,
      "<h4>": 188,
      "<h5>": 189,
      "<h6>": 190,
      "<blockquote>": 191,
      "</h1>": 192,
      "</h2>": 193,
      "</h3>": 194,
      "</h4>": 195,
      "</h5>": 196,
      "</h6>": 197,
      "</blockquote>": 198,
      "<strong>": 199,
      "<em>": 200,
      "<b>": 201,
      "<i>": 202,
      "<u>": 203,
      "<s>": 204,
      "<sub>": 205,
      "<sup>": 206,
      "<code>": 207,
      "</strong>": 208,
      "</em>": 209,
      "</b>": 210,
      "</i>": 211,
      "</u>": 212,
      "</s>": 213,
      "</sub>": 214,
      "</sup>": 215,
      "</code>": 216,
      "<0x00>": 217,
      "<0x01>": 218,
      "<0x02>": 219,
      "<0x03>": 220,
      "<0x04>": 221,
      "<0x05>": 222,
      "<0x06>": 223,
      "<0x07>": 224,
      "<0x08>": 225,
      "\t": 226,
      "<0x0A>": 227,
      "<0x0B>": 228,
      "<0x0C>": 229,
      "<0x0D>": 230,
      "<0x0E>": 231,
      "<0x0F>": 232,
      "<0x10>": 233,
      "<0x11>": 234,
      "<0x12>": 235,
      "<0x13>": 236,
      "<0x14>": 237,
      "<0x15>": 238,
      "<0x16>": 239,
      "<0x17>": 240,
      "<0x18>": 241,
      "<0x19>": 242,
      "<0x1A>": 243,
      "<0x1B>": 244,
      "<0x1C>": 245,
      "<0x1D>": 246,
      "<0x1E>": 247,
      "<0x1F>": 248,
      "<0x20>": 249,
      "<0x21>": 250,
      "<0x22>": 251,
      "<0x23>": 252,
      "<0x24>": 253,
      "<0x25>": 254,
      "<0x26>": 255,
      "<0x27>": 256,
      "<0x28>": 257,
      "<0x29>": 258,
      "<0x2A>": 259,
      "<0x2B>": 260,
      "<0x2C>": 261,
      "<0x2D>": 262,
      "<0x2E>": 263,
      "<0x2F>": 264,
      "<0x30>": 265,
      "<0x31>": 266,
      "<0x32>": 267,
      "<0x33>": 268,
      "<0x34>": 269,
      "<0x35>": 270,
      "<0x36>": 271,
      "<0x37>": 272,
      "<0x38>": 273,
      "<0x39>": 274,
      "<0x3A>": 275,
      "<0x3B>": 276,
      "<0x3C>": 277,
      "<0x3D>": 278,
      "<0x3E>": 279,
      "<0x3F>": 280,
      "<0x40>": 281,
      "<0x41>": 282,
      "<0x42>": 283,
      "<0x43>": 284,
      "<0x44>": 285,
      "<0x45>": 286,
      "<0x46>": 287,
      "<0x47>": 288,
      "<0x48>": 289,
      "<0x49>": 290,
      "<0x4A>": 291,
      "<0x4B>": 292,
      "<0x4C>": 293,
      "<0x4D>": 294,
      "<0x4E>": 295,
      "<0x4F>": 296,
      "<0x50>": 297,
      "<0x51>": 298,
      "<0x52>": 299,
      "<0x53>": 300,
      "<0x54>": 301,
      "<0x55>": 302,
      "<0x56>": 303,
      "<0x57>": 304,
      "<0x58>": 305,
      "<0x59>": 306,
      "<0x5A>": 307,
      "<0x5B>": 308,
      "<0x5C>": 309,
      "<0x5D>": 310,
      "<0x5E>": 311,
      "<0x5F>": 312,
      "<0x60>": 313,
      "<0x61>": 314,
      "<0x62>": 315,
      "<0x63>": 316,
      "<0x64>": 317,
      "<0x65>": 318,
      "<0x66>": 319,
      "<0x67>": 320,
      "<0x68>": 321,
      "<0x69>": 322,
      "<0x6A>": 323,
      "<0x6B>": 324,
      "<0x6C>": 325,
      "<0x6D>": 326,
      "<0x6E>": 327,
      "<0x6F>": 328,
      "<0x70>": 329,
      "<0x71>": 330,
      "<0x72>": 331,
      "<0x73>": 332,
      "<0x74>": 333,
      "<0x75>": 334,
      "<0x76>": 335,
      "<0x77>": 336,
      "<0x78>": 337,
      "<0x79>": 338,
      "<0x7A>": 339,
      "<0x7B>": 340,
      "<0x7C>": 341,
      "<0x7D>": 342,
      "<0x7E>": 343,
      "<0x7F>": 344,
      "<0x80>": 345,
      "<0x81>": 346,
      "<0x82>": 347,
      "<0x83>": 348,
      "<0x84>": 349,
      "<0x85>": 350,
      "<0x86>": 351,
      "<0x87>": 352,
      "<0x88>": 353,
      "<0x89>": 354,
      "<0x8A>": 355,
      "<0x8B>": 356,
      "<0x8C>": 357,
      "<0x8D>": 358,
      "<0x8E>": 359,
      "<0x8F>": 360,
      "<0x90>": 361,
      "<0x91>": 362,
      "<0x92>": 363,
      "<0x93>": 364,
      "<0x94>": 365,
      "<0x95>": 366,
      "<0x96>": 367,
      "<0x97>": 368,
      "<0x98>": 369,
      "<0x99>": 370,
      "<0x9A>": 371,
      "<0x9B>": 372,
      "<0x9C>": 373,
      "<0x9D>": 374,
      "<0x9E>": 375,
      "<0x9F>": 376,
      "<0xA0>": 377,
      "<0xA1>": 378,
      "<0xA2>": 379,
      "<0xA3>": 380,
      "<0xA4>": 381,
      "<0xA5>": 382,
      "<0xA6>": 383,
      "<0xA7>": 384,
      "<0xA8>": 385,
      "<0xA9>": 386,
      "<0xAA>": 387,
      "<0xAB>": 388,
      "<0xAC>": 389,
      "<0xAD>": 390,
      "<0xAE>": 391,
      "<0xAF>": 392,
      "<0xB0>": 393,
      "<0xB1>": 394,
      "<0xB2>": 395,
      "<0xB3>": 396,
      "<0xB4>": 397,
      "<0xB5>": 398,
      "<0xB6>": 399,
      "<0xB7>": 400,
      "<0xB8>": 401,
      "<0xB9>": 402,
      "<0xBA>": 403,
      "<0xBB>": 404,
      "<0xBC>": 405,
      "<0xBD>": 406,
      "<0xBE>": 407,
      "<0xBF>": 408,
      "<0xC0>": 409,
      "<0xC1>": 410,
      "<0xC2>": 411,
      "<0xC3>": 412,
      "<0xC4>": 413,
      "<0xC5>": 414,
      "<0xC6>": 415,
      "<0xC7>": 416,
      "<0xC8>": 417,
      "<0xC9>": 418,
      "<0xCA>": 419,
      "<0xCB>": 420,
      "<0xCC>": 421,
      "<0xCD>": 422,
      "<0xCE>": 423,
      "<0xCF>": 424,
      "<0xD0>": 425,
      "<0xD1>": 426,
      "<0xD2>": 427,
      "<0xD3>": 428,
      "<0xD4>": 429,
      "<0xD5>": 430,
      "<0xD6>": 431,
      "<0xD7>": 432,
      "<0xD8>": 433,
      "<0xD9>": 434,
      "<0xDA>": 435,
      "<0xDB>": 436,
      "<0xDC>": 437,
      "<0xDD>": 438,
      "<0xDE>": 439,
      "<0xDF>": 440,
      "<0xE0>": 441,
      "<0xE1>": 442,
      "<0xE2>": 443,
      "<0xE3>": 444,
      "<0xE4>": 445,
      "<0xE5>": 446,
      "<0xE6>": 447,
      "<0xE7>": 448,
      "<0xE8>": 449,
      "<0xE9>": 450,
      "<0xEA>": 451,
      "<0xEB>": 452,
      "<0xEC>": 453,
      "<0xED>": 454,
      "<0xEE>": 455,
      "<0xEF>": 456,
      "<0xF0>": 457,
      "<0xF1>": 458,
      "<0xF2>": 459,
      "<0xF3>": 460,
      "<0xF4>": 461,
      "<0xF5>": 462,
      "<0xF6>": 463,
      "<0xF7>": 464,
      "<0xF8>": 465,
      "<0xF9>": 466,
      "<0xFA>": 467,
      "<0xFB>": 468,
      "<0xFC>": 469,
      "<0xFD>": 470,
      "<0xFE>": 471,
      "<0xFF>": 472,
      "in": 473,
      "▁t": 474,
      "er": 475,
      "▁a": 476,
      "on": 477,
      "re": 478,
      "en": 479,
      "he": 480,
      "an": 481,
      "at": 482,
      "or": 483,
      "es": 484,
      "▁s": 485,
      "ar": 486,
      "ti": 487,
      "te": 488,
      "th": 489,
      "st": 490,
      "nd": 491,
      "al": 492,
      "▁o": 493,
      "le": 494,
      "de": 495,
      "▁i": 496,
      "se": 497,
      "▁c": 498,
      "▁d": 499,
      "it": 500,
      "nt": 501,
      "is": 502,
      "▁p": 503,
      "me": 504,
      "ri": 505,
      "ra": 506,
      "ou": 507,
      "as": 508,
      "ed": 509,
      "ne": 510,
      "to": 511,
      "ng": 512,
      "▁w": 513,
      "ro": 514,
      "li": 515,
      "ta": 516,
      "▁f": 517,
      "▁b": 518,
      "▁m": 519,
      "ic": 520,
      "el": 521,
      "la": 522,
      "et": 523,
      "ve": 524,
      "ur": 525,
      "▁e": 526,
      "ha": 527,
      "co": 528,
      "ll": 529,
      "ch": 530,
      "▁h": 531,
      "ce": 532,
      "▁l": 533,
      "ma": 534,
      "ea": 535,
      "io": 536,
      "om": 537,
      "tr": 538,
      "id": 539,
      "il": 540,
      "ge": 541,
      "si": 542,
      "di": 543,
      "hi": 544,
      "lo": 545,
      "ec": 546,
      "ie": 547,
      "▁r": 548,
      "un": 549,
      "ac": 550,
      "ct": 551,
      "▁n": 552,
      "us": 553,
      "pe": 554,
      "be": 555,
      "na": 556,
      "ca": 557,
      "ns": 558,
      "of": 559,
      "ut": 560,
      "ol": 561,
      "ot": 562,
      "am": 563,
      "ss": 564,
      "em": 565,
      "ad": 566,
      "po": 567,
      "os": 568,
      "pa": 569,
      "▁S": 570,
      "im": 571,
      "ho": 572,
      "▁the": 573,
      "ing": 574,
      "▁in": 575,
      "▁of": 576,
      "▁to": 577,
      "▁and": 578,
      "ent": 579,
      "▁th": 580,
      "▁de": 581,
      "▁re": 582,
      "▁g": 583,
      "▁T": 584,
      "▁C": 585,
      "▁A": 586,
      "ion": 587,
      "tion": 588,
      "▁=": 589,
      "▁I": 590,
      "▁(": 591,
      "qu": 592,
      "▁v": 593,
      ");": 594,
      "▁M": 595,
      "▁P": 596,
      "▁y": 597,
      "ver": 598,
      "▁B": 599,
      "um": 600,
      "ul": 601,
      "ig": 602,
      "▁is": 603,
      "▁for": 604,
      "ly": 605,
      "▁u": 606,
      "ate": 607,
      "▁D": 608,
      "ow": 609,
      "ter": 610,
      "▁on": 611,
      "▁{": 612,
      "▁wi": 613,
      "▁be": 614,
      "end": 615,
      "ir": 616,
      "ts": 617,
      "ers": 618,
      "ue": 619,
      "hat": 620,
      "ati": 621,
      "ine": 622,
      "ck": 623,
      "res": 624,
      "▁R": 625,
      "ay": 626,
      "=\"": 627,
      "gh": 628,
      "▁L": 629,
      "ons": 630,
      "men": 631,
      "▁con": 632,
      "▁F": 633,
      "//": 634,
      "int": 635,
      "cti": 636,
      "▁E": 637,
      "▁k": 638,
      "and": 639,
      "▁H": 640,
      "ort": 641,
      "our": 642,
      "od": 643,
      "est": 644,
      "()": 645,
      "▁N": 646,
      "▁W": 647,
      "if": 648,
      "▁*": 649,
      "ht": 650,
      "The": 651,
      "ith": 652,
      "▁G": 653,
      "ere": 654,
      "ke": 655,
      "▁pro": 656,
      "ub": 657,
      "pp": 658,
      "▁en": 659,
      "ble": 660,
      "▁ha": 661,
      "\\[": 662,
      "\\]": 663,
      "▁\"": 664,
      "▁it": 665,
      "oo": 666,
      "ci": 667,
      "all": 668,
      "ess": 669,
      "ab": 670,
      "▁an": 671,
      "ret": 672,
      "ation": 673,
      "▁that": 674,
      "▁with": 675,
      "ction": 676,
      "ment": 677,
      "▁j": 678,
      "▁ne": 679,
      "▁st": 680,
      "▁com": 681,
      "▁me": 682,
      "▁la": 683,
      "ity": 684,
      "▁as": 685,
      "tem": 686,
      "▁O": 687,
      "**": 688,
      "▁or": 689,
      "urn": 690,
      "ted": 691,
      "▁you": 692,
      "▁he": 693,
      "ist": 694,
      "rom": 695,
      "▁at": 696,
      "▁$": 697,
      "▁ex": 698,
      "▁se": 699,
      "▁qu": 700,
      "mp": 701,
      "▁li": 702,
      "line": 703,
      "per": 704,
      "▁mo": 705,
      "ld": 706,
      "port": 707,
      "▁are": 708,
      "▁le": 709,
      "}\r": 710,
      "ure": 711,
      "▁so": 712,
      "▁J": 713,
      "▁The": 714,
      "op": 715,
      "iz": 716,
      "▁al": 717,
      "▁ma": 718,
      "ass": 719,
      "lic": 720,
      "xt": 721,
      "ore": 722,
      "..": 723,
      "▁&": 724,
      "ite": 725,
      "/*": 726,
      "</": 727,
      "▁-": 728,
      "▁was": 729,
      "▁\\": 730,
      "▁by": 731,
      "age": 732,
      "▁wh": 733,
      "ame": 734,
      "ard": 735,
      "▁this": 736,
      "ag": 737,
      "ak": 738,
      "ust": 739,
      "ia": 740,
      "ant": 741,
      "▁su": 742,
      "hl": 743,
      "▁V": 744,
      "out": 745,
      "for": 746,
      "▁K": 747,
      "▁un": 748,
      "▁do": 749,
      "ap": 750,
      "▁di": 751,
      "▁U": 752,
      "ath": 753,
      "ang": 754,
      "▁par": 755,
      "ty": 756,
      "ord": 757,
      "ber": 758,
      "con": 759,
      "art": 760,
      "ff": 761,
      "ys": 762,
      "du": 763,
      "ome": 764,
      "tu": 765,
      "ze": 766,
      "ind": 767,
      "\">": 768,
      "▁po": 769,
      "ex": 770,
      "mat": 771,
      "las": 772,
      "return": 773,
      "▁from": 774,
      "/**": 775,
      "hline": 776,
      "▁'": 777,
      "gin": 778,
      "ans": 779,
      "▁not": 780,
      "rou": 781,
      "av": 782,
      "▁we": 783,
      "ata": 784,
      "one": 785,
      "cl": 786,
      "ack": 787,
      "▁ch": 788,
      "},": 789,
      "ther": 790,
      "▁have": 791,
      "au": 792,
      "▁no": 793,
      "--": 794,
      "ase": 795,
      "ould": 796,
      "ich": 797,
      "▁can": 798,
      "▁tr": 799,
      "sed": 800,
      "sp": 801,
      "tic": 802,
      "ud": 803,
      "ote": 804,
      "ublic": 805,
      "ell": 806,
      "▁id": 807,
      "ong": 808,
      "import": 809,
      "ep": 810,
      "ect": 811,
      "ks": 812,
      "▁ar": 813,
      "};": 814,
      "ght": 815,
      "oc": 816,
      "sion": 817,
      "get": 818,
      "ous": 819,
      "ru": 820,
      "();": 821,
      "▁el": 822,
      "),": 823,
      "\",": 824,
      "mo": 825,
      "▁lo": 826,
      "ran": 827,
      "ary": 828,
      "▁*/": 829,
      "cc": 830,
      "ry": 831,
      "▁all": 832,
      "ps": 833,
      "ount": 834,
      "▁ad": 835,
      "ph": 836,
      "ork": 837,
      "lass": 838,
      "ound": 839,
      "ated": 840,
      "▁ab": 841,
      "▁per": 842,
      "lock": 843,
      "ire": 844,
      "ear": 845,
      ").": 846,
      "▁sp": 847,
      "▁des": 848,
      "ER": 849,
      "ven": 850,
      "ance": 851,
      "va": 852,
      "lu": 853,
      "red": 854,
      "ult": 855,
      "iew": 856,
      "erv": 857,
      "ally": 858,
      "});": 859,
      "*/": 860,
      "▁your": 861,
      "ile": 862,
      "ice": 863,
      "che": 864,
      "▁:": 865,
      "der": 866,
      "▁sa": 867,
      "▁z": 868,
      "og": 869,
      "fer": 870,
      "▁go": 871,
      "com": 872,
      "ON": 873,
      "row": 874,
      "▁es": 875,
      "ence": 876,
      "▁will": 877,
      "▁In": 878,
      "public": 879,
      "ign": 880,
      "set": 881,
      "ime": 882,
      "this": 883,
      "item": 884,
      "(\"": 885,
      "In": 886,
      "able": 887,
      "▁new": 888,
      "ize": 889,
      "▁Y": 890,
      "ull": 891,
      "▁[": 892,
      "vi": 893,
      "vel": 894,
      "are": 895,
      "ont": 896,
      "ast": 897,
      "▁п": 898,
      "▁ro": 899,
      "ple": 900,
      "▁but": 901,
      "begin": 902,
      "ations": 903,
      "▁Th": 904,
      "__": 905,
      "▁uid": 906,
      "▁que": 907,
      "▁up": 908,
      "tring": 909,
      "▁co": 910,
      "ight": 911,
      "ст": 912,
      "div": 913,
      "ide": 914,
      "ces": 915,
      "▁man": 916,
      "▁us": 917,
      "ial": 918,
      "▁has": 919,
      "',": 920,
      "▁out": 921,
      "▁ا": 922,
      "block": 923,
      "ies": 924,
      "lay": 925,
      "▁his": 926,
      "section": 927,
      "IN": 928,
      "ory": 929,
      "▁und": 930,
      "so": 931,
      "sel": 932,
      "ook": 933,
      "val": 934,
      "ft": 935,
      "ill": 936,
      "log": 937,
      "ption": 938,
      "ded": 939,
      "ni": 940,
      "▁с": 941,
      "▁comp": 942,
      "▁sh": 943,
      "ree": 944,
      "quote": 945,
      "Th": 946,
      "▁get": 947,
      "▁which": 948,
      "->": 949,
      "ater": 950,
      "▁pid": 951,
      "ens": 952,
      "▁pre": 953,
      "▁.": 954,
      "...": 955,
      "no": 956,
      "iv": 957,
      "Con": 958,
      "▁ti": 959,
      "pri": 960,
      "form": 961,
      "{\r": 962,
      "▁+": 963,
      "par": 964,
      "ten": 965,
      "we": 966,
      "ach": 967,
      "▁<": 968,
      "wer": 969,
      "▁my": 970,
      "ond": 971,
      "▁ver": 972,
      "blockquote": 973,
      "▁one": 974,
      "▁в": 975,
      "ors": 976,
      "mer": 977,
      "▁more": 978,
      "ink": 979,
      "EN": 980,
      "на": 981,
      "les": 982,
      ";\r": 983,
      "▁they": 984,
      "ain": 985,
      "ystem": 986,
      "Re": 987,
      "ES": 988,
      "▁dis": 989,
      "ents": 990,
      "ild": 991,
      "▁au": 992,
      "RE": 993,
      "_{": 994,
      "mb": 995,
      "ни": 996,
      "▁St": 997,
      "ра": 998,
      "ms": 999,
      "ew": 1000,
      "bu": 1001,
      "ark": 1002,
      "})": 1003,
      "▁res": 1004,
      "▁ag": 1005,
      "▁tra": 1006,
      "▁cont": 1007,
      "▁et": 1008,
      "▁some": 1009,
      "pro": 1010,
      "но": 1011,
      "ga": 1012,
      "▁if": 1013,
      "ings": 1014,
      "▁imp": 1015,
      "AT": 1016,
      "min": 1017,
      "cri": 1018,
      "▁fo": 1019,
      "del": 1020,
      "up": 1021,
      "old": 1022,
      "ob": 1023,
      "▁their": 1024,
      "gra": 1025,
      "▁ri": 1026,
      "▁Re": 1027,
      "AR": 1028,
      "ef": 1029,
      "ST": 1030,
      "ен": 1031,
      "now": 1032,
      "lan": 1033,
      "▁fe": 1034,
      "ular": 1035,
      "▁bo": 1036,
      "cre": 1037,
      "ener": 1038,
      "fe": 1039,
      "ray": 1040,
      "▁col": 1041,
      "do": 1042,
      "ish": 1043,
      "eng": 1044,
      "OR": 1045,
      "▁pl": 1046,
      "own": 1047,
      "unction": 1048,
      "▁were": 1049,
      "ari": 1050,
      "▁ra": 1051,
      "go": 1052,
      "self": 1053,
      "ress": 1054,
      "bo": 1055,
      "gen": 1056,
      "ug": 1057,
      "iel": 1058,
      "▁app": 1059,
      "led": 1060,
      "▁inter": 1061,
      "▁class": 1062,
      "ung": 1063,
      "▁who": 1064,
      "put": 1065,
      "man": 1066,
      "name": 1067,
      "enter": 1068,
      "▁time": 1069,
      "▁her": 1070,
      "pt": 1071,
      "fa": 1072,
      "AN": 1073,
      "▁Ch": 1074,
      "else": 1075,
      "vo": 1076,
      "enti": 1077,
      "tions": 1078,
      "ject": 1079,
      "▁“": 1080,
      "ро": 1081,
      "text": 1082,
      "math": 1083,
      "ik": 1084,
      "ón": 1085,
      "tain": 1086,
      "Pro": 1087,
      "▁te": 1088,
      "▁any": 1089,
      "und": 1090,
      "ale": 1091,
      "pr": 1092,
      "▁had": 1093,
      "act": 1094,
      "St": 1095,
      "ays": 1096,
      "igh": 1097,
      "ser": 1098,
      "▁pe": 1099,
      "wo": 1100,
      "('": 1101,
      "clu": 1102,
      "err": 1103,
      "▁there": 1104,
      "▁about": 1105,
      "ual": 1106,
      "ext": 1107,
      "oid": 1108,
      "ype": 1109,
      "то": 1110,
      "reat": 1111,
      "ties": 1112,
      "bre": 1113,
      "que": 1114,
      "ical": 1115,
      "ко": 1116,
      "▁}": 1117,
      "▁@": 1118,
      "▁val": 1119,
      "AL": 1120,
      "▁exp": 1121,
      "▁Pro": 1122,
      "▁er": 1123,
      "ok": 1124,
      "▁been": 1125,
      "rm": 1126,
      "nswer": 1127,
      "fic": 1128,
      "ier": 1129,
      "▁ob": 1130,
      "irst": 1131,
      "ments": 1132,
      "ick": 1133,
      "▁would": 1134,
      "ren": 1135,
      "til": 1136,
      "ins": 1137,
      "▁\\\\": 1138,
      "how": 1139,
      "ah": 1140,
      "▁x": 1141,
      "▁set": 1142,
      "ves": 1143,
      "▁am": 1144,
      "ien": 1145,
      "IC": 1146,
      "▁ال": 1147,
      "▁/": 1148,
      "str": 1149,
      "▁mu": 1150,
      "als": 1151,
      "Ex": 1152,
      "▁и": 1153,
      "▁like": 1154,
      "var": 1155,
      "▁other": 1156,
      "▁–": 1157,
      "ner": 1158,
      "▁==": 1159,
      "▁work": 1160,
      "ka": 1161,
      "▁year": 1162,
      "▁over": 1163,
      "▁Com": 1164,
      "▁It": 1165,
      "ton": 1166,
      "▁our": 1167,
      "▁pri": 1168,
      "IT": 1169,
      "▁also": 1170,
      "tt": 1171,
      "iti": 1172,
      ".,": 1173,
      "▁them": 1174,
      "the": 1175,
      "ка": 1176,
      "▁del": 1177,
      "▁than": 1178,
      "vate": 1179,
      "▁said": 1180,
      "▁pr": 1181,
      "essage": 1182,
      "fter": 1183,
      "mage": 1184,
      "▁when": 1185,
      "xic": 1186,
      "atch": 1187,
      "▁der": 1188,
      "tab": 1189,
      "very": 1190,
      "ning": 1191,
      "\":": 1192,
      "cho": 1193,
      "ix": 1194,
      "ues": 1195,
      "ange": 1196,
      "ger": 1197,
      "umer": 1198,
      "▁о": 1199,
      "▁op": 1200,
      "round": 1201,
      "mit": 1202,
      "tle": 1203,
      "ates": 1204,
      "ced": 1205,
      "itemize": 1206,
      "ib": 1207,
      "}$": 1208,
      "----": 1209,
      "▁fa": 1210,
      "▁int": 1211,
      "▁what": 1212,
      "fo": 1213,
      "}{": 1214,
      "ре": 1215,
      "vent": 1216,
      "app": 1217,
      "its": 1218,
      "ili": 1219,
      "::": 1220,
      "ey": 1221,
      "▁bu": 1222,
      "▁af": 1223,
      "icity": 1224,
      "cy": 1225,
      "▁car": 1226,
      "umber": 1227,
      "▁fin": 1228,
      "read": 1229,
      "▁know": 1230,
      "Com": 1231,
      "Name": 1232,
      "ges": 1233,
      "erson": 1234,
      "^{": 1235,
      "▁=>": 1236,
      "Id": 1237,
      "▁م": 1238,
      "String": 1239,
      "▁д": 1240,
      "▁!": 1241,
      "▁cons": 1242,
      "let": 1243,
      "▁acc": 1244,
      "):": 1245,
      "mathrm": 1246,
      "ax": 1247,
      "inal": 1248,
      "▁may": 1249,
      "ield": 1250,
      "▁stat": 1251,
      "alse": 1252,
      "▁produ": 1253,
      "add": 1254,
      "pon": 1255,
      "eb": 1256,
      "try": 1257,
      "cess": 1258,
      "data": 1259,
      "▁da": 1260,
      "Answer": 1261,
      "ake": 1262,
      "ava": 1263,
      "rit": 1264,
      "▁che": 1265,
      "ive": 1266,
      "vers": 1267,
      "List": 1268,
      "))": 1269,
      "rent": 1270,
      "▁Z": 1271,
      "▁dif": 1272,
      "xicity": 1273,
      "▁Q": 1274,
      "EX": 1275,
      "por": 1276,
      "▁its": 1277,
      "▁sec": 1278,
      "col": 1279,
      "▁into": 1280,
      "▁use": 1281,
      "ian": 1282,
      "ny": 1283,
      "▁she": 1284,
      "▁bet": 1285,
      "ek": 1286,
      "ource": 1287,
      "olu": 1288,
      "ли": 1289,
      "ctor": 1290,
      "ator": 1291,
      "▁ac": 1292,
      "def": 1293,
      "No": 1294,
      "▁str": 1295,
      "▁reg": 1296,
      "▁only": 1297,
      "ва": 1298,
      "LE": 1299,
      "▁sto": 1300,
      "▁para": 1301,
      "▁De": 1302,
      "▁die": 1303,
      "thing": 1304,
      "▁à": 1305,
      "AM": 1306,
      "▁No": 1307,
      "],": 1308,
      "view": 1309,
      "==": 1310,
      "day": 1311,
      "gn": 1312,
      "\");": 1313,
      "ip": 1314,
      "▁He": 1315,
      "ри": 1316,
      "▁just": 1317,
      "те": 1318,
      "low": 1319,
      "▁sur": 1320,
      "ION": 1321,
      "▁wor": 1322,
      "ost": 1323,
      "nter": 1324,
      "const": 1325,
      "ride": 1326,
      "▁min": 1327,
      "orm": 1328,
      "ful": 1329,
      "gan": 1330,
      "right": 1331,
      "private": 1332,
      "го": 1333,
      "▁sub": 1334,
      "da": 1335,
      "://": 1336,
      "ric": 1337,
      "ina": 1338,
      "ele": 1339,
      "ode": 1340,
      "ody": 1341,
      "ID": 1342,
      "ople": 1343,
      "▁du": 1344,
      "ily": 1345,
      "ough": 1346,
      "ervice": 1347,
      "fore": 1348,
      "▁pla": 1349,
      "mon": 1350,
      "cer": 1351,
      "lect": 1352,
      "pos": 1353,
      "▁else": 1354,
      "▁back": 1355,
      "▁ب": 1356,
      "▁him": 1357,
      "View": 1358,
      "▁men": 1359,
      "mes": 1360,
      "aw": 1361,
      "▁under": 1362,
      "wn": 1363,
      "▁An": 1364,
      "не": 1365,
      "ved": 1366,
      "Res": 1367,
      "▁how": 1368,
      "▁ser": 1369,
      "▁first": 1370,
      "ise": 1371,
      "▁по": 1372,
      "toxicity": 1373,
      "arch": 1374,
      "▁Ar": 1375,
      "....": 1376,
      "tive": 1377,
      "▁two": 1378,
      "▁м": 1379,
      "];": 1380,
      "gs": 1381,
      "▁true": 1382,
      "tra": 1383,
      "ating": 1384,
      "any": 1385,
      "ative": 1386,
      "center": 1387,
      "\")": 1388,
      "pl": 1389,
      "▁ter": 1390,
      "та": 1391,
      "llow": 1392,
      "Ch": 1393,
      "ave": 1394,
      "▁por": 1395,
      "Over": 1396,
      "ank": 1397,
      "ars": 1398,
      "Ar": 1399,
      "ль": 1400,
      "▁off": 1401,
      "hile": 1402,
      "ause": 1403,
      "new": 1404,
      "son": 1405,
      "▁cor": 1406,
      "ert": 1407,
      "▁ve": 1408,
      "▁requ": 1409,
      "umerate": 1410,
      "▁function": 1411,
      "▁should": 1412,
      "verride": 1413,
      "▁Al": 1414,
      "ures": 1415,
      "▁на": 1416,
      "▁This": 1417,
      "dd": 1418,
      "▁Con": 1419,
      "▁|": 1420,
      "cted": 1421,
      "aj": 1422,
      "▁data": 1423,
      "roup": 1424,
      "type": 1425,
      "▁good": 1426,
      "▁pres": 1427,
      "▁é": 1428,
      "ational": 1429,
      "ery": 1430,
      "print": 1431,
      "span": 1432,
      "iss": 1433,
      "ла": 1434,
      "ving": 1435,
      "IS": 1436,
      "▁les": 1437,
      "za": 1438,
      "su": 1439,
      "EXT": 1440,
      "Ad": 1441,
      "using": 1442,
      "▁see": 1443,
      "ão": 1444,
      "land": 1445,
      "RO": 1446,
      "hed": 1447,
      "▁We": 1448,
      "cu": 1449,
      "▁these": 1450,
      "AS": 1451,
      "▁after": 1452,
      "▁don": 1453,
      "▁los": 1454,
      "▁est": 1455,
      "thod": 1456,
      "\\\\": 1457,
      "uk": 1458,
      "▁ap": 1459,
      "hen": 1460,
      "▁people": 1461,
      "AC": 1462,
      "tos": 1463,
      ".\"": 1464,
      "▁ge": 1465,
      "▁void": 1466,
      "▁$\\": 1467,
      "▁null": 1468,
      "To": 1469,
      "ility": 1470,
      "ene": 1471,
      "az": 1472,
      "enumerate": 1473,
      "▁And": 1474,
      "▁gu": 1475,
      "▁need": 1476,
      "▁mon": 1477,
      "ward": 1478,
      "▁System": 1479,
      "ле": 1480,
      ");\r": 1481,
      "rough": 1482,
      "clude": 1483,
      "fig": 1484,
      "▁im": 1485,
      "ting": 1486,
      "▁hel": 1487,
      "▁gra": 1488,
      "▁spec": 1489,
      "▁now": 1490,
      "▁resp": 1491,
      "▁then": 1492,
      "mi": 1493,
      "ки": 1494,
      "pec": 1495,
      "\";": 1496,
      "▁long": 1497,
      "▁did": 1498,
      "htt": 1499,
      "▁show": 1500,
      "▁make": 1501,
      "▁sta": 1502,
      "▁name": 1503,
      "stru": 1504,
      "▁trans": 1505,
      "Col": 1506,
      "ider": 1507,
      "▁very": 1508,
      "bel": 1509,
      "Data": 1510,
      "▁Ex": 1511,
      "fra": 1512,
      "▁sc": 1513,
      "ied": 1514,
      "ai": 1515,
      "ific": 1516,
      "▁here": 1517,
      "ters": 1518,
      "rol": 1519,
      "Override": 1520,
      "vid": 1521,
      "ml": 1522,
      "ны": 1523,
      "▁char": 1524,
      "HE": 1525,
      "ower": 1526,
      "ature": 1527,
      "cial": 1528,
      "message": 1529,
      "ada": 1530,
      "▁ed": 1531,
      "▁cre": 1532,
      "case": 1533,
      "dic": 1534,
      "▁every": 1535,
      "▁high": 1536,
      "ee": 1537,
      "▁could": 1538,
      "oy": 1539,
      "ET": 1540,
      "▁sti": 1541,
      "ines": 1542,
      "dition": 1543,
      "king": 1544,
      "date": 1545,
      "▁most": 1546,
      "by": 1547,
      "ado": 1548,
      "tern": 1549,
      "mber": 1550,
      "ло": 1551,
      "▁person": 1552,
      "break": 1553,
      "▁play": 1554,
      "ood": 1555,
      "php": 1556,
      "▁pa": 1557,
      "sub": 1558,
      "stra": 1559,
      "ls": 1560,
      "▁cal": 1561,
      "▁>": 1562,
      "med": 1563,
      "///": 1564,
      "ception": 1565,
      "▁false": 1566,
      "▁ret": 1567,
      "ster": 1568,
      "ila": 1569,
      "▁where": 1570,
      "за": 1571,
      "ely": 1572,
      "▁و": 1573,
      "den": 1574,
      "▁sm": 1575,
      "▁X": 1576,
      "ana": 1577,
      "▁well": 1578,
      "ead": 1579,
      "▁end": 1580,
      "\"\"": 1581,
      "▁such": 1582,
      "urrent": 1583,
      "▁na": 1584,
      "ision": 1585,
      "▁sk": 1586,
      "▁rec": 1587,
      "ouse": 1588,
      "use": 1589,
      "igned": 1590,
      "▁ph": 1591,
      "oh": 1592,
      "▁through": 1593,
      "ather": 1594,
      "ler": 1595,
      "This": 1596,
      "formation": 1597,
      "br": 1598,
      "gu": 1599,
      "▁den": 1600,
      "TO": 1601,
      "time": 1602,
      "és": 1603,
      "cha": 1604,
      "ros": 1605,
      "▁sim": 1606,
      "во": 1607,
      "▁{\r": 1608,
      "des": 1609,
      "ara": 1610,
      "▁follow": 1611,
      "▁look": 1612,
      "ED": 1613,
      "ris": 1614,
      "UT": 1615,
      "ان": 1616,
      "****": 1617,
      "▁value": 1618,
      "ash": 1619,
      "##": 1620,
      "Cont": 1621,
      "▁New": 1622,
      "mun": 1623,
      "sition": 1624,
      "▁count": 1625,
      "lease": 1626,
      "Mo": 1627,
      "tail": 1628,
      "mis": 1629,
      "rid": 1630,
      "vis": 1631,
      "▁bec": 1632,
      "▁supp": 1633,
      "▁hand": 1634,
      "▁import": 1635,
      "For": 1636,
      "Text": 1637,
      "class": 1638,
      "Type": 1639,
      "▁differ": 1640,
      "++": 1641,
      "▁rep": 1642,
      "UR": 1643,
      "▁made": 1644,
      "user": 1645,
      "▁You": 1646,
      "▁tri": 1647,
      "ente": 1648,
      "ils": 1649,
      "LL": 1650,
      "hip": 1651,
      "ти": 1652,
      "▁again": 1653,
      "▁?": 1654,
      "uring": 1655,
      "count": 1656,
      "amp": 1657,
      "▁years": 1658,
      "ole": 1659,
      "ribu": 1660,
      "ki": 1661,
      "mary": 1662,
      "ja": 1663,
      "▁eff": 1664,
      "not": 1665,
      "Val": 1666,
      "▁ele": 1667,
      "hr": 1668,
      "uc": 1669,
      "▁cur": 1670,
      "▁used": 1671,
      "left": 1672,
      "▁loc": 1673,
      "▁б": 1674,
      "ired": 1675,
      "\"\"\"": 1676,
      "way": 1677,
      "pace": 1678,
      "ween": 1679,
      "De": 1680,
      "▁tem": 1681,
      "▁read": 1682,
      "▁much": 1683,
      "elf": 1684,
      "')": 1685,
      "yn": 1686,
      "jec": 1687,
      "▁,": 1688,
      "<?": 1689,
      "ample": 1690,
      "ть": 1691,
      "tabular": 1692,
      "▁even": 1693,
      "raw": 1694,
      "ron": 1695,
      "cal": 1696,
      "▁dist": 1697,
      "▁def": 1698,
      "▁For": 1699,
      "▁#": 1700,
      "list": 1701,
      "▁part": 1702,
      "▁way": 1703,
      "▁So": 1704,
      "load": 1705,
      "▁down": 1706,
      "▁help": 1707,
      "▁ke": 1708,
      "▁Le": 1709,
      "pre": 1710,
      "AD": 1711,
      "lick": 1712,
      "▁stud": 1713,
      "ute": 1714,
      "velop": 1715,
      "file": 1716,
      "▁find": 1717,
      "It": 1718,
      "▁ass": 1719,
      "▁pos": 1720,
      "▁does": 1721,
      "hose": 1722,
      "my": 1723,
      "▁Uni": 1724,
      "US": 1725,
      "sh": 1726,
      "▁String": 1727,
      "param": 1728,
      "lack": 1729,
      "';": 1730,
      "ule": 1731,
      "gy": 1732,
      "▁ste": 1733,
      "We": 1734,
      "ics": 1735,
      "▁form": 1736,
      "ength": 1737,
      "Rep": 1738,
      "cont": 1739,
      "illi": 1740,
      "thor": 1741,
      "▁think": 1742,
      "▁gener": 1743,
      "▁day": 1744,
      "▁Res": 1745,
      "ness": 1746,
      "ices": 1747,
      "chen": 1748,
      "▁una": 1749,
      "stat": 1750,
      "▁fil": 1751,
      "play": 1752,
      "ken": 1753,
      "CT": 1754,
      "}\\": 1755,
      "▁đ": 1756,
      "sist": 1757,
      "▁number": 1758,
      "roll": 1759,
      "ument": 1760,
      "error": 1761,
      "▁_": 1762,
      "▁tea": 1763,
      "ason": 1764,
      "mail": 1765,
      "▁mar": 1766,
      "▁many": 1767,
      "ask": 1768,
      "urs": 1769,
      "▁lit": 1770,
      "ined": 1771,
      "▁rel": 1772,
      "▁tak": 1773,
      "ulti": 1774,
      "▁great": 1775,
      "En": 1776,
      "($": 1777,
      "▁las": 1778,
      "pack": 1779,
      "▁plan": 1780,
      "▁fam": 1781,
      "cip": 1782,
      "▁ein": 1783,
      "▁exper": 1784,
      "table": 1785,
      "ING": 1786,
      "chool": 1787,
      "▁cha": 1788,
      "▁dire": 1789,
      "iness": 1790,
      "▁Ro": 1791,
      "je": 1792,
      "cia": 1793,
      "▁before": 1794,
      "comp": 1795,
      "ión": 1796,
      "ults": 1797,
      "reg": 1798,
      "ince": 1799,
      "▁il": 1800,
      "cription": 1801,
      "ever": 1802,
      "ern": 1803,
      "▁si": 1804,
      "да": 1805,
      "▁pas": 1806,
      "hoto": 1807,
      "requ": 1808,
      "▁same": 1809,
      "ер": 1810,
      "back": 1811,
      "▁system": 1812,
      "ream": 1813,
      "roid": 1814,
      "work": 1815,
      ".”": 1816,
      "ato": 1817,
      "By": 1818,
      "▁sha": 1819,
      "ica": 1820,
      "▁java": 1821,
      "ет": 1822,
      "▁の": 1823,
      "ital": 1824,
      "ends": 1825,
      "ال": 1826,
      "ames": 1827,
      "here": 1828,
      "['": 1829,
      "yp": 1830,
      "ctions": 1831,
      "anks": 1832,
      "▁right": 1833,
      "ants": 1834,
      "mand": 1835,
      "Ob": 1836,
      "▁TEXT": 1837,
      "ush": 1838,
      "ets": 1839,
      "rand": 1840,
      "What": 1841,
      "▁Me": 1842,
      "▁add": 1843,
      "lean": 1844,
      "lose": 1845,
      "ural": 1846,
      "idth": 1847,
      "``": 1848,
      "▁cu": 1849,
      "array": 1850,
      "ring": 1851,
      "but": 1852,
      "▁each": 1853,
      "ww": 1854,
      "▁being": 1855,
      "▁ques": 1856,
      "alth": 1857,
      "indow": 1858,
      "ove": 1859,
      "But": 1860,
      "▁because": 1861,
      "ait": 1862,
      "ox": 1863,
      "▁!=": 1864,
      "▁between": 1865,
      "ENT": 1866,
      "gg": 1867,
      "ij": 1868,
      "value": 1869,
      "uck": 1870,
      "cts": 1871,
      "▁main": 1872,
      "hite": 1873,
      "ción": 1874,
      "Al": 1875,
      "ios": 1876,
      "▁As": 1877,
      "____": 1878,
      "▁real": 1879,
      "void": 1880,
      "▁Ind": 1881,
      "sum": 1882,
      "▁gi": 1883,
      "▁emp": 1884,
      "Par": 1885,
      "ession": 1886,
      "▁To": 1887,
      "EM": 1888,
      "▁list": 1889,
      "van": 1890,
      "hy": 1891,
      "▁comple": 1892,
      "▁equ": 1893,
      "dex": 1894,
      "yle": 1895,
      "ustom": 1896,
      "lear": 1897,
      "Me": 1898,
      "gram": 1899,
      "▁cour": 1900,
      "ía": 1901,
      "AP": 1902,
      "ار": 1903,
      "ini": 1904,
      "EL": 1905,
      "ots": 1906,
      "OM": 1907,
      "ura": 1908,
      "ás": 1909,
      "bal": 1910,
      "▁Co": 1911,
      "wit": 1912,
      "▁life": 1913,
      "head": 1914,
      "include": 1915,
      "▁type": 1916,
      "```": 1917,
      "mar": 1918,
      "▁vis": 1919,
      "www": 1920,
      "ours": 1921,
      "titu": 1922,
      "){": 1923,
      "rd": 1924,
      "ino": 1925,
      "▁mat": 1926,
      "▁If": 1927,
      "word": 1928,
      "function": 1929,
      "zy": 1930,
      "▁say": 1931,
      "era": 1932,
      "aligned": 1933,
      "size": 1934,
      "lig": 1935,
      "net": 1936,
      "▁Mar": 1937,
      "▁want": 1938,
      ">\r": 1939,
      "▁Po": 1940,
      "▁those": 1941,
      "▁found": 1942,
      "ür": 1943,
      "amb": 1944,
      "rite": 1945,
      "Reply": 1946,
      "ero": 1947,
      "orn": 1948,
      "He": 1949,
      "▁у": 1950,
      "come": 1951,
      "▁Col": 1952,
      "ased": 1953,
      "sible": 1954,
      "logy": 1955,
      "▁dec": 1956,
      "▁je": 1957,
      "▁mod": 1958,
      "less": 1959,
      "ras": 1960,
      "mm": 1961,
      "▁ca": 1962,
      "▁best": 1963,
      "].": 1964,
      "▁ho": 1965,
      "▁sal": 1966,
      "OL": 1967,
      "▁)": 1968,
      "An": 1969,
      "AG": 1970,
      "ccess": 1971,
      "ane": 1972,
      "string": 1973,
      "sions": 1974,
      "Po": 1975,
      "▁د": 1976,
      "dif": 1977,
      "▁lar": 1978,
      "rr": 1979,
      "▁too": 1980,
      "util": 1981,
      "▁pour": 1982,
      "▁cap": 1983,
      "Ab": 1984,
      ",\"": 1985,
      "▁bus": 1986,
      "▁take": 1987,
      "rop": 1988,
      "ats": 1989,
      "kan": 1990,
      "fault": 1991,
      "oun": 1992,
      "▁On": 1993,
      "ante": 1994,
      "ND": 1995,
      "tical": 1996,
      "▁own": 1997,
      "sive": 1998,
      "dis": 1999,
      "main": 2000,
      "▁last": 2001,
      "ida": 2002,
      "▁water": 2003,
      "▁must": 2004,
      "▁But": 2005,
      "ux": 2006,
      "▁ear": 2007,
      "▁cas": 2008,
      "▁Ad": 2009,
      "▁Tr": 2010,
      "▁self": 2011,
      "ized": 2012,
      "lin": 2013,
      "--------": 2014,
      "Test": 2015,
      "▁dep": 2016,
      "▁line": 2017,
      "inter": 2018,
      "UN": 2019,
      "umb": 2020,
      "▁Su": 2021,
      "▁static": 2022,
      "ando": 2023,
      "!!": 2024,
      "Le": 2025,
      "CH": 2026,
      "▁act": 2027,
      "▁Man": 2028,
      "▁ins": 2029,
      "ui": 2030,
      "IL": 2031,
      "▁son": 2032,
      "key": 2033,
      "ko": 2034,
      "▁sign": 2035,
      "▁war": 2036,
      "lie": 2037,
      "OT": 2038,
      "une": 2039,
      "▁place": 2040,
      "▁cer": 2041,
      "vity": 2042,
      "side": 2043,
      "▁App": 2044,
      "You": 2045,
      "ister": 2046,
      "▁child": 2047,
      "▁final": 2048,
      "IM": 2049,
      "ards": 2050,
      "ior": 2051,
      "▁dan": 2052,
      "▁post": 2053,
      "ross": 2054,
      "OS": 2055,
      "▁acti": 2056,
      "ateg": 2057,
      "Des": 2058,
      "▁cl": 2059,
      "▁run": 2060,
      "ences": 2061,
      "▁—": 2062,
      "▁come": 2063,
      "▁vari": 2064,
      "▁Be": 2065,
      "▁rest": 2066,
      "▁string": 2067,
      "cept": 2068,
      "▁ت": 2069,
      "ba": 2070,
      "alk": 2071,
      "▁Par": 2072,
      "loy": 2073,
      "']": 2074,
      "▁serv": 2075,
      "▁still": 2076,
      "td": 2077,
      "▁home": 2078,
      "And": 2079,
      "AB": 2080,
      "omen": 2081,
      "▁vo": 2082,
      "▁inf": 2083,
      "ration": 2084,
      "aterial": 2085,
      "rag": 2086,
      "▁не": 2087,
      "▁inst": 2088,
      "itor": 2089,
      "▁proble": 2090,
      "▁model": 2091,
      "ety": 2092,
      "IG": 2093,
      "package": 2094,
      "ways": 2095,
      "▁sho": 2096,
      "label": 2097,
      "lace": 2098,
      "rist": 2099,
      "▁bel": 2100,
      "App": 2101,
      "че": 2102,
      "▁conf": 2103,
      "ient": 2104,
      "▁Mo": 2105,
      "face": 2106,
      "▁cho": 2107,
      "▁Se": 2108,
      "ump": 2109,
      "▁mark": 2110,
      "ike": 2111,
      "ished": 2112,
      "▁information": 2113,
      "ict": 2114,
      "▁develop": 2115,
      "▁view": 2116,
      "ling": 2117,
      "ense": 2118,
      "lish": 2119,
      "OD": 2120,
      "▁test": 2121,
      "On": 2122,
      "ying": 2123,
      "ви": 2124,
      "▁Is": 2125,
      "Int": 2126,
      "ches": 2127,
      "vaila": 2128,
      "ля": 2129,
      "':": 2130,
      "lement": 2131,
      "▁Un": 2132,
      "GR": 2133,
      "▁world": 2134,
      "ground": 2135,
      "ру": 2136,
      "los": 2137,
      "itu": 2138,
      "vern": 2139,
      "stract": 2140,
      "oft": 2141,
      "▁let": 2142,
      "other": 2143,
      "?>": 2144,
      "▁both": 2145,
      "▁за": 2146,
      "▁inv": 2147,
      "▁OF": 2148,
      "▁three": 2149,
      "ality": 2150,
      "Hi": 2151,
      "Item": 2152,
      "ref": 2153,
      "ints": 2154,
      "Set": 2155,
      "ually": 2156,
      "pi": 2157,
      "py": 2158,
      "Au": 2159,
      "▁ent": 2160,
      "▁;": 2161,
      "pen": 2162,
      "ye": 2163,
      "org": 2164,
      "Table": 2165,
      "▁far": 2166,
      "▁different": 2167,
      "body": 2168,
      "As": 2169,
      "ita": 2170,
      "▁contin": 2171,
      "▁row": 2172,
      "▁non": 2173,
      "▁open": 2174,
      "otal": 2175,
      "ма": 2176,
      "▁using": 2177,
      "uro": 2178,
      "Bu": 2179,
      "Exception": 2180,
      "olution": 2181,
      "▁love": 2182,
      "▁while": 2183,
      "▁order": 2184,
      "▁process": 2185,
      "▁к": 2186,
      "▁old": 2187,
      "jo": 2188,
      "can": 2189,
      "▁em": 2190,
      "bar": 2191,
      "▁ко": 2192,
      "lient": 2193,
      "ya": 2194,
      "test": 2195,
      "▁result": 2196,
      "dia": 2197,
      "▁appro": 2198,
      "hes": 2199,
      "tact": 2200,
      "▁fri": 2201,
      "ми": 2202,
      "▁return": 2203,
      "▁word": 2204,
      "acter": 2205,
      "▁head": 2206,
      "kes": 2207,
      "ages": 2208,
      "clud": 2209,
      "tis": 2210,
      "▁met": 2211,
      "▁care": 2212,
      "ся": 2213,
      "tel": 2214,
      "cher": 2215,
      "ora": 2216,
      "ager": 2217,
      "▁mit": 2218,
      ")\r": 2219,
      "▁bre": 2220,
      "▁La": 2221,
      "path": 2222,
      "▁free": 2223,
      "User": 2224,
      "Tr": 2225,
      "Qu": 2226,
      "ley": 2227,
      "▁oper": 2228,
      "▁happ": 2229,
      "Ind": 2230,
      "tes": 2231,
      "▁von": 2232,
      "де": 2233,
      "top": 2234,
      "ries": 2235,
      "anti": 2236,
      "▁van": 2237,
      "▁start": 2238,
      "▁En": 2239,
      "tage": 2240,
      "ди": 2241,
      "ponse": 2242,
      "pg": 2243,
      "▁Car": 2244,
      "▁fun": 2245,
      "▁incre": 2246,
      "▁full": 2247,
      "▁gre": 2248,
      "▁stand": 2249,
      "▁How": 2250,
      "▁fac": 2251,
      "▁fact": 2252,
      "▁pur": 2253,
      "entr": 2254,
      "http": 2255,
      "Value": 2256,
      "▁second": 2257,
      "perty": 2258,
      "dy": 2259,
      "));": 2260,
      "vailable": 2261,
      "▁All": 2262,
      "ining": 2263,
      "ille": 2264,
      "cript": 2265,
      "ouble": 2266,
      "▁top": 2267,
      "({": 2268,
      "car": 2269,
      "▁case": 2270,
      "ement": 2271,
      "را": 2272,
      "from": 2273,
      "nder": 2274,
      "ación": 2275,
      "▁pu": 2276,
      "▁really": 2277,
      "lue": 2278,
      "▁ref": 2279,
      "▁क": 2280,
      "IV": 2281,
      "Time": 2282,
      "　　": 2283,
      "▁IN": 2284,
      "ism": 2285,
      "ます": 2286,
      "ali": 2287,
      "char": 2288,
      "ident": 2289,
      "▁during": 2290,
      "tics": 2291,
      "▁prof": 2292,
      "ram": 2293,
      "▁public": 2294,
      "rt": 2295,
      "umn": 2296,
      "です": 2297,
      "▁bea": 2298,
      "How": 2299,
      "versity": 2300,
      "▁small": 2301,
      "▁ide": 2302,
      "ker": 2303,
      "}}": 2304,
      "ooks": 2305,
      "▁stock": 2306,
      "▁pass": 2307,
      "order": 2308,
      "core": 2309,
      "lection": 2310,
      "ano": 2311,
      "▁«": 2312,
      "ffer": 2313,
      "action": 2314,
      "gle": 2315,
      ",”": 2316,
      "▁THE": 2317,
      "▁zu": 2318,
      "▁going": 2319,
      "().": 2320,
      "▁ک": 2321,
      "irc": 2322,
      "▁poli": 2323,
      "mic": 2324,
      "ales": 2325,
      "ender": 2326,
      "lex": 2327,
      "▁Au": 2328,
      "▁state": 2329,
      ".)": 2330,
      "Un": 2331,
      "▁ext": 2332,
      "▁bar": 2333,
      "▁ف": 2334,
      "mod": 2335,
      "cus": 2336,
      "cks": 2337,
      "duct": 2338,
      "So": 2339,
      "vir": 2340,
      "Add": 2341,
      "ds": 2342,
      "▁star": 2343,
      "[]": 2344,
      "▁sy": 2345,
      "▁without": 2346,
      "fil": 2347,
      "▁%": 2348,
      "▁pra": 2349,
      "▁parti": 2350,
      "▁next": 2351,
      "ben": 2352,
      "▁Inter": 2353,
      "▁dri": 2354,
      "ito": 2355,
      "▁little": 2356,
      "');": 2357,
      "ohn": 2358,
      "▁organ": 2359,
      "▁une": 2360,
      "▁Sp": 2361,
      "ima": 2362,
      "tim": 2363,
      "▁Or": 2364,
      "▁They": 2365,
      "State": 2366,
      "▁Eng": 2367,
      "ones": 2368,
      "▁consider": 2369,
      "▁method": 2370,
      "▁got": 2371,
      "▁commun": 2372,
      "imes": 2373,
      "▁iss": 2374,
      "▁feel": 2375,
      "ived": 2376,
      "▁point": 2377,
      "▁um": 2378,
      "▁US": 2379,
      "Lo": 2380,
      "icht": 2381,
      "leg": 2382,
      "igure": 2383,
      "▁power": 2384,
      "▁dé": 2385,
      "site": 2386,
      "tig": 2387,
      "SE": 2388,
      "▁lead": 2389,
      "▁Do": 2390,
      "pper": 2391,
      "stand": 2392,
      "cons": 2393,
      "Get": 2394,
      "▁size": 2395,
      "ção": 2396,
      "Man": 2397,
      "▁game": 2398,
      "▁Per": 2399,
      "▁tech": 2400,
      "▁org": 2401,
      "lat": 2402,
      "▁level": 2403,
      "した": 2404,
      "Hel": 2405,
      "ference": 2406,
      "▁med": 2407,
      "nel": 2408,
      "▁call": 2409,
      "▁orig": 2410,
      "arget": 2411,
      "▁following": 2412,
      "ulation": 2413,
      "bor": 2414,
      "▁Sch": 2415,
      "▁image": 2416,
      "iter": 2417,
      "▁respon": 2418,
      "ци": 2419,
      "▁Amer": 2420,
      "uct": 2421,
      "▁[]": 2422,
      "sk": 2423,
      "cing": 2424,
      "▁user": 2425,
      "мо": 2426,
      "graph": 2427,
      "bit": 2428,
      "ста": 2429,
      "All": 2430,
      "outh": 2431,
      "▁rece": 2432,
      "ques": 2433,
      "gr": 2434,
      "els": 2435,
      "summary": 2436,
      "Is": 2437,
      "ought": 2438,
      "▁What": 2439,
      "Not": 2440,
      "New": 2441,
      "illa": 2442,
      "/**\r": 2443,
      "enn": 2444,
      "cel": 2445,
      "rs": 2446,
      "▁never": 2447,
      "Be": 2448,
      "▁around": 2449,
      "zen": 2450,
      "▁flo": 2451,
      "▁anal": 2452,
      "▁android": 2453,
      "lication": 2454,
      "▁а": 2455,
      "▁There": 2456,
      "url": 2457,
      "▁cost": 2458,
      "▁qui": 2459,
      "ential": 2460,
      "ée": 2461,
      "light": 2462,
      "▁pop": 2463,
      "{\\": 2464,
      "ization": 2465,
      "▁Ver": 2466,
      "yl": 2467,
      "https": 2468,
      "Key": 2469,
      "sign": 2470,
      "Thanks": 2471,
      "oney": 2472,
      "bs": 2473,
      "▁current": 2474,
      "▁She": 2475,
      "ido": 2476,
      "ست": 2477,
      "tom": 2478,
      "bi": 2479,
      "▁design": 2480,
      "▁Des": 2481,
      "▁file": 2482,
      "oci": 2483,
      "▁prote": 2484,
      "fi": 2485,
      "ware": 2486,
      "по": 2487,
      "====": 2488,
      "Service": 2489,
      "▁provi": 2490,
      "nh": 2491,
      ">>": 2492,
      "▁school": 2493,
      "Model": 2494,
      "If": 2495,
      "▁yang": 2496,
      "▁das": 2497,
      "▁att": 2498,
      "▁dans": 2499,
      "▁build": 2500,
      "(\\": 2501,
      "image": 2502,
      "orth": 2503,
      "Date": 2504,
      "▁bro": 2505,
      "▁available": 2506,
      "▁put": 2507,
      "ched": 2508,
      "uman": 2509,
      "▁Qu": 2510,
      "▁vol": 2511,
      "rror": 2512,
      "▁Bo": 2513,
      "▁month": 2514,
      "▁II": 2515,
      "model": 2516,
      "▁mer": 2517,
      "af": 2518,
      "▁mus": 2519,
      "IP": 2520,
      "▁tre": 2521,
      "idad": 2522,
      "▁pay": 2523,
      "▁Ab": 2524,
      "▁better": 2525,
      "pping": 2526,
      "html": 2527,
      "ury": 2528,
      "nal": 2529,
      "$\\": 2530,
      "Object": 2531,
      "▁shi": 2532,
      "▁Fran": 2533,
      "wa": 2534,
      "arn": 2535,
      "tails": 2536,
      "rodu": 2537,
      "▁про": 2538,
      "ffic": 2539,
      "tif": 2540,
      "mission": 2541,
      "Size": 2542,
      "бо": 2543,
      "же": 2544,
      "book": 2545,
      "▁ع": 2546,
      "ding": 2547,
      "▁eas": 2548,
      "={": 2549,
      "▁another": 2550,
      "▁Can": 2551,
      "frac": 2552,
      "equ": 2553,
      "▁cam": 2554,
      "▁Sh": 2555,
      "Or": 2556,
      "▁super": 2557,
      "▁hist": 2558,
      "án": 2559,
      "duction": 2560,
      "▁hum": 2561,
      "▁Ge": 2562,
      "title": 2563,
      "code": 2564,
      "▁cent": 2565,
      "▁service": 2566,
      "▁business": 2567,
      "▁Ph": 2568,
      "▁Tra": 2569,
      "▁como": 2570,
      "lor": 2571,
      "▁bas": 2572,
      "pped": 2573,
      "ticle": 2574,
      "▁tu": 2575,
      "trans": 2576,
      "><": 2577,
      "▁ben": 2578,
      "Su": 2579,
      "=\\": 2580,
      "ico": 2581,
      "▁control": 2582,
      "▁ч": 2583,
      "EC": 2584,
      "SC": 2585,
      "▁mis": 2586,
      "▁pat": 2587,
      "▁occ": 2588,
      "IST": 2589,
      "▁leg": 2590,
      "▁htt": 2591,
      "▁fr": 2592,
      "▁always": 2593,
      "▁ра": 2594,
      "▁ou": 2595,
      "lar": 2596,
      "len": 2597,
      "ideo": 2598,
      "▁item": 2599,
      "ATION": 2600,
      "ams": 2601,
      "▁page": 2602,
      "して": 2603,
      "())": 2604,
      "vely": 2605,
      "▁Gu": 2606,
      "ве": 2607,
      "UL": 2608,
      ")$": 2609,
      "cor": 2610,
      "▁light": 2611,
      "Dis": 2612,
      "▁might": 2613,
      "▁fra": 2614,
      "max": 2615,
      "mas": 2616,
      "ние": 2617,
      "って": 2618,
      "▁few": 2619,
      "ala": 2620,
      "▁key": 2621,
      "System": 2622,
      "▁har": 2623,
      "▁ima": 2624,
      "▁At": 2625,
      "state": 2626,
      "pport": 2627,
      "▁ev": 2628,
      "());": 2629,
      "▁includ": 2630,
      "search": 2631,
      "mente": 2632,
      "index": 2633,
      "Cons": 2634,
      "where": 2635,
      "ния": 2636,
      "iones": 2637,
      "cent": 2638,
      "▁ang": 2639,
      "();\r": 2640,
      "▁ist": 2641,
      "ose": 2642,
      "emp": 2643,
      "▁less": 2644,
      "ها": 2645,
      "abel": 2646,
      "ious": 2647,
      "uf": 2648,
      "▁Che": 2649,
      "Che": 2650,
      "lot": 2651,
      "▁things": 2652,
      "rat": 2653,
      "atter": 2654,
      "ча": 2655,
      "▁black": 2656,
      "cul": 2657,
      "▁mil": 2658,
      "▁Cal": 2659,
      "▁gr": 2660,
      "kt": 2661,
      "до": 2662,
      "lobal": 2663,
      "▁grow": 2664,
      "urch": 2665,
      "ache": 2666,
      "result": 2667,
      "▁Cha": 2668,
      "▁change": 2669,
      "▁Ste": 2670,
      "ione": 2671,
      "off": 2672,
      "bt": 2673,
      "▁white": 2674,
      "input": 2675,
      "▁support": 2676,
      "▁Sec": 2677,
      "ech": 2678,
      "itle": 2679,
      "atures": 2680,
      "▁air": 2681,
      "▁os": 2682,
      "ann": 2683,
      "rect": 2684,
      "loc": 2685,
      "▁photo": 2686,
      "}^{": 2687,
      "▁pot": 2688,
      "ids": 2689,
      "▁↑": 2690,
      "▁against": 2691,
      "▁</": 2692,
      "GRAM": 2693,
      "II": 2694,
      "ail": 2695,
      "vice": 2696,
      "pose": 2697,
      "lation": 2698,
      "ience": 2699,
      "map": 2700,
      "▁check": 2701,
      "ony": 2702,
      "▁Ne": 2703,
      "mu": 2704,
      "▁days": 2705,
      "▁var": 2706,
      "▁sum": 2707,
      "▁cri": 2708,
      "▁jo": 2709,
      "eder": 2710,
      "▁prin": 2711,
      "ources": 2712,
      "▁area": 2713,
      "▁mean": 2714,
      "sy": 2715,
      "IR": 2716,
      "▁hal": 2717,
      "▁const": 2718,
      "ku": 2719,
      "File": 2720,
      "ression": 2721,
      "▁\r": 2722,
      "▁//": 2723,
      "ات": 2724,
      "▁field": 2725,
      "▁ind": 2726,
      "oman": 2727,
      "Up": 2728,
      "post": 2729,
      "▁family": 2730,
      "▁left": 2731,
      "▁&&": 2732,
      "▁program": 2733,
      "▁give": 2734,
      "dos": 2735,
      "▁auf": 2736,
      "length": 2737,
      "thers": 2738,
      "▁ng": 2739,
      "viron": 2740,
      "ky": 2741,
      "▁Go": 2742,
      "ible": 2743,
      "▁web": 2744,
      "▁keep": 2745,
      "▁err": 2746,
      "▁ber": 2747,
      "sc": 2748,
      "uti": 2749,
      "sta": 2750,
      "rc": 2751,
      "ently": 2752,
      "ira": 2753,
      "▁since": 2754,
      "▁plus": 2755,
      "ison": 2756,
      "source": 2757,
      "lich": 2758,
      "ctive": 2759,
      "▁memb": 2760,
      "At": 2761,
      "сто": 2762,
      "ican": 2763,
      "▁given": 2764,
      "▁allow": 2765,
      "vernment": 2766,
      "roller": 2767,
      "▁ن": 2768,
      "▁Pre": 2769,
      "▁+=": 2770,
      "ories": 2771,
      "ysis": 2772,
      "Field": 2773,
      "Requ": 2774,
      "▁something": 2775,
      "\".": 2776,
      "/>": 2777,
      "▁group": 2778,
      "........": 2779,
      "orld": 2780,
      "ingle": 2781,
      "▁May": 2782,
      "▁ل": 2783,
      "zz": 2784,
      "▁four": 2785,
      "Tra": 2786,
      "▁س": 2787,
      "▁week": 2788,
      "angu": 2789,
      "mos": 2790,
      "width": 2791,
      "▁won": 2792,
      "▁text": 2793,
      "her": 2794,
      "Do": 2795,
      "ities": 2796,
      "▁ten": 2797,
      "▁ni": 2798,
      "conom": 2799,
      "▁sing": 2800,
      "bab": 2801,
      "▁writ": 2802,
      "▁sol": 2803,
      "▁...": 2804,
      "times": 2805,
      "▁appe": 2806,
      "Map": 2807,
      "▁chang": 2808,
      "rie": 2809,
      "▁El": 2810,
      "▁hard": 2811,
      "asure": 2812,
      "▁local": 2813,
      "@@": 2814,
      "▁conne": 2815,
      "▁sus": 2816,
      "▁require": 2817,
      "Stat": 2818,
      "▁within": 2819,
      "ario": 2820,
      "▁sure": 2821,
      "Ed": 2822,
      "ately": 2823,
      "▁big": 2824,
      "uel": 2825,
      "ua": 2826,
      "cur": 2827,
      "eting": 2828,
      "Button": 2829,
      "ICTO": 2830,
      "ites": 2831,
      "agement": 2832,
      "js": 2833,
      "ked": 2834,
      "▁present": 2835,
      "▁dem": 2836,
      "▁Pri": 2837,
      "ols": 2838,
      "quest": 2839,
      "▁land": 2840,
      "La": 2841,
      "▁г": 2842,
      "▁bir": 2843,
      "gi": 2844,
      "▁important": 2845,
      "▁pi": 2846,
      "▁*/\r": 2847,
      "jects": 2848,
      "quad": 2849,
      "unt": 2850,
      "position": 2851,
      "LO": 2852,
      "cto": 2853,
      "maz": 2854,
      "ste": 2855,
      "opy": 2856,
      "▁side": 2857,
      "▁kind": 2858,
      "vious": 2859,
      "endif": 2860,
      "▁ка": 2861,
      "▁though": 2862,
      "field": 2863,
      "ör": 2864,
      "▁doc": 2865,
      "AY": 2866,
      "ama": 2867,
      "ме": 2868,
      "OW": 2869,
      "▁book": 2870,
      "UM": 2871,
      "▁question": 2872,
      "ICTOGRAM": 2873,
      "Page": 2874,
      "='": 2875,
      "Error": 2876,
      "▁uni": 2877,
      "raph": 2878,
      "▁до": 2879,
      "▁aff": 2880,
      "▁color": 2881,
      "ged": 2882,
      "▁(!": 2883,
      "ney": 2884,
      "creen": 2885,
      "сти": 2886,
      "▁sch": 2887,
      "▁contain": 2888,
      "▁says": 2889,
      "cm": 2890,
      "ready": 2891,
      "ptions": 2892,
      "▁material": 2893,
      "▁turn": 2894,
      "▁University": 2895,
      "cell": 2896,
      "ln": 2897,
      "oly": 2898,
      "IF": 2899,
      "▁Dis": 2900,
      "▁Mic": 2901,
      "att": 2902,
      "▁cou": 2903,
      "▁fore": 2904,
      "▁custom": 2905,
      "▁ce": 2906,
      "bed": 2907,
      "dies": 2908,
      "lete": 2909,
      "▁large": 2910,
      "ponent": 2911,
      "▁law": 2912,
      "Out": 2913,
      "ام": 2914,
      "Color": 2915,
      "▁Min": 2916,
      "vec": 2917,
      "▁aus": 2918,
      "▁rowspan": 2919,
      "while": 2920,
      "▁ST": 2921,
      "resent": 2922,
      "Per": 2923,
      "▁av": 2924,
      "▁Cont": 2925,
      "My": 2926,
      "▁mas": 2927,
      "cep": 2928,
      "iled": 2929,
      "Context": 2930,
      "move": 2931,
      "▁Bu": 2932,
      "ances": 2933,
      "▁Med": 2934,
      "itial": 2935,
      "jor": 2936,
      "си": 2937,
      "subsection": 2938,
      "color": 2939,
      "▁lot": 2940,
      "▁eng": 2941,
      "▁nat": 2942,
      "▁für": 2943,
      "nen": 2944,
      "OP": 2945,
      "ording": 2946,
      "▁•": 2947,
      "ilder": 2948,
      "db": 2949,
      "én": 2950,
      "▁arch": 2951,
      "▁cannot": 2952,
      "▁mor": 2953,
      "cle": 2954,
      "Info": 2955,
      "TH": 2956,
      "earch": 2957,
      "ormal": 2958,
      "▁pan": 2959,
      "▁food": 2960,
      "▁My": 2961,
      "▁health": 2962,
      "then": 2963,
      "vin": 2964,
      "▁room": 2965,
      "oogle": 2966,
      "är": 2967,
      "▁max": 2968,
      "▁ה": 2969,
      "▁team": 2970,
      "▁body": 2971,
      "CE": 2972,
      "eter": 2973,
      "хо": 2974,
      "ham": 2975,
      "esti": 2976,
      "ona": 2977,
      "room": 2978,
      "rin": 2979,
      "cos": 2980,
      "}_{": 2981,
      "▁Cor": 2982,
      "▁cla": 2983,
      "▁bra": 2984,
      "%%": 2985,
      "ules": 2986,
      "ii": 2987,
      "hal": 2988,
      "Read": 2989,
      "han": 2990,
      "tack": 2991,
      "▁God": 2992,
      "IA": 2993,
      "assert": 2994,
      "▁That": 2995,
      "ither": 2996,
      "start": 2997,
      "ula": 2998,
      "Log": 2999,
      "ese": 3000,
      "▁range": 3001,
      "ending": 3002,
      "▁Ma": 3003,
      "zer": 3004,
      "▁DE": 3005,
      "▁offic": 3006,
      "sib": 3007,
      "▁pen": 3008,
      "ribute": 3009,
      "Code": 3010,
      "▁cli": 3011,
      "indows": 3012,
      "])": 3013,
      "ions": 3014,
      "▁done": 3015,
      "Ver": 3016,
      "ync": 3017,
      "▁near": 3018,
      "▁ré": 3019,
      "((": 3020,
      "Se": 3021,
      "▁()": 3022,
      "▁times": 3023,
      "▁away": 3024,
      "▁от": 3025,
      "witch": 3026,
      "▁cell": 3027,
      "doc": 3028,
      "▁Pa": 3029,
      "img": 3030,
      "▁‘": 3031,
      "▁sem": 3032,
      "ULL": 3033,
      "eak": 3034,
      "Pre": 3035,
      "▁house": 3036,
      "▁table": 3037,
      "ку": 3038,
      "ette": 3039,
      "▁State": 3040,
      "with": 3041,
      "serv": 3042,
      "▁__": 3043,
      "▁contra": 3044,
      "▁С": 3045,
      "▁Mr": 3046,
      "aring": 3047,
      "▁whe": 3048,
      "bin": 3049,
      "uly": 3050,
      "▁total": 3051,
      "][": 3052,
      "▁Bar": 3053,
      "▁upon": 3054,
      "чи": 3055,
      "num": 3056,
      "box": 3057,
      "▁со": 3058,
      "▁ris": 3059,
      "artment": 3060,
      "▁Mon": 3061,
      "▁struct": 3062,
      "chan": 3063,
      "Array": 3064,
      "mark": 3065,
      "▁П": 3066,
      "px": 3067,
      "uri": 3068,
      "▁children": 3069,
      "▁ill": 3070,
      "▁event": 3071,
      "▁auto": 3072,
      "EST": 3073,
      "Count": 3074,
      "fun": 3075,
      "resh": 3076,
      "▁possible": 3077,
      "Co": 3078,
      "Index": 3079,
      "IO": 3080,
      "ilar": 3081,
      "▁Stu": 3082,
      "Loc": 3083,
      "DE": 3084,
      "SP": 3085,
      "се": 3086,
      "lit": 3087,
      "Mod": 3088,
      "▁chi": 3089,
      "▁effec": 3090,
      "▁jpg": 3091,
      "▁pare": 3092,
      "exp": 3093,
      "ases": 3094,
      "pass": 3095,
      "▁art": 3096,
      "▁default": 3097,
      "▁cover": 3098,
      "vision": 3099,
      "▁Reg": 3100,
      "tific": 3101,
      "ghts": 3102,
      "▁multi": 3103,
      "▁create": 3104,
      "▁action": 3105,
      "oolean": 3106,
      "▁Lo": 3107,
      "vironment": 3108,
      "uture": 3109,
      "▁clear": 3110,
      "ERS": 3111,
      "TER": 3112,
      "▁sever": 3113,
      "▁perform": 3114,
      "Image": 3115,
      "lag": 3116,
      "▁net": 3117,
      "▁red": 3118,
      "></": 3119,
      "▁exist": 3120,
      "arg": 3121,
      "stance": 3122,
      "tag": 3123,
      "▁move": 3124,
      "▁clo": 3125,
      "ports": 3126,
      "▁social": 3127,
      "pter": 3128,
      "ditional": 3129,
      "ables": 3130,
      "▁above": 3131,
      "nes": 3132,
      "▁enti": 3133,
      "(),": 3134,
      "Click": 3135,
      "enta": 3136,
      "pan": 3137,
      "cket": 3138,
      "national": 3139,
      "uration": 3140,
      "▁Ed": 3141,
      "▁face": 3142,
      "▁ſ": 3143,
      "rown": 3144,
      "▁ش": 3145,
      "▁colspan": 3146,
      "zo": 3147,
      "struct": 3148,
      "▁sen": 3149,
      "met": 3150,
      "▁called": 3151,
      "▁е": 3152,
      "run": 3153,
      "Source": 3154,
      "wards": 3155,
      "full": 3156,
      "▁gen": 3157,
      "pha": 3158,
      "create": 3159,
      "bf": 3160,
      "********": 3161,
      "ня": 3162,
      "._": 3163,
      "older": 3164,
      "▁why": 3165,
      "▁thing": 3166,
      "ql": 3167,
      "ically": 3168,
      "ests": 3169,
      "▁country": 3170,
      "That": 3171,
      "▁deter": 3172,
      "▁sat": 3173,
      "rict": 3174,
      "../": 3175,
      "▁أ": 3176,
      "Lay": 3177,
      "▁low": 3178,
      "Of": 3179,
      "otes": 3180,
      "ypes": 3181,
      "ental": 3182,
      "▁В": 3183,
      "ency": 3184,
      "▁account": 3185,
      "▁special": 3186,
      "ên": 3187,
      "▁practi": 3188,
      "urns": 3189,
      "▁results": 3190,
      "Ser": 3191,
      "With": 3192,
      "▁deli": 3193,
      "▁When": 3194,
      "▁Val": 3195,
      "cles": 3196,
      "Reg": 3197,
      "▁ф": 3198,
      "counter": 3199,
      "ace": 3200,
      "air": 3201,
      "yd": 3202,
      "▁stu": 3203,
      "▁Ins": 3204,
      "▁course": 3205,
      "pare": 3206,
      "Box": 3207,
      "ional": 3208,
      "▁date": 3209,
      "▁problem": 3210,
      "orts": 3211,
      "has": 3212,
      "▁shall": 3213,
      "▁э": 3214,
      "▁employ": 3215,
      "war": 3216,
      "га": 3217,
      "Pri": 3218,
      "ral": 3219,
      "urther": 3220,
      "▁review": 3221,
      "▁base": 3222,
      "posed": 3223,
      "licy": 3224,
      "▁product": 3225,
      "▁fav": 3226,
      "▁nil": 3227,
      "▁AND": 3228,
      "▁при": 3229,
      "gether": 3230,
      "со": 3231,
      "▁Not": 3232,
      "▁hy": 3233,
      "idual": 3234,
      "ور": 3235,
      "▁mi": 3236,
      "oper": 3237,
      "ires": 3238,
      "link": 3239,
      "dio": 3240,
      "cht": 3241,
      "▁stre": 3242,
      "dep": 3243,
      "▁т": 3244,
      "▁<<": 3245,
      "ena": 3246,
      "▁abs": 3247,
      "▁ju": 3248,
      "export": 3249,
      "▁San": 3250,
      "▁з": 3251,
      "ditions": 3252,
      "ried": 3253,
      "tice": 3254,
      "▁offer": 3255,
      "ados": 3256,
      "▁perio": 3257,
      "▁anti": 3258,
      "▁ann": 3259,
      "illion": 3260,
      "▁nu": 3261,
      "peed": 3262,
      "ills": 3263,
      "▁мо": 3264,
      "lished": 3265,
      "________": 3266,
      "▁más": 3267,
      "mt": 3268,
      "Inter": 3269,
      "▁sin": 3270,
      "true": 3271,
      "ento": 3272,
      "▁interest": 3273,
      "▁until": 3274,
      "El": 3275,
      "yes": 3276,
      "▁company": 3277,
      "▁mom": 3278,
      "▁With": 3279,
      "▁direct": 3280,
      "▁experience": 3281,
      "ité": 3282,
      "asi": 3283,
      "tre": 3284,
      "▁character": 3285,
      "utes": 3286,
      "▁example": 3287,
      "▁thi": 3288,
      "Ste": 3289,
      "った": 3290,
      "gar": 3291,
      "▁inte": 3292,
      "▁begin": 3293,
      "▁gir": 3294,
      "ین": 3295,
      "info": 3296,
      "▁--": 3297,
      "▁bit": 3298,
      "ры": 3299,
      "Component": 3300,
      "▁Rep": 3301,
      "imal": 3302,
      "▁already": 3303,
      "Event": 3304,
      "Request": 3305,
      "$.": 3306,
      "▁seem": 3307,
      "####": 3308,
      "▁short": 3309,
      "next": 3310,
      "▁general": 3311,
      "content": 3312,
      "irm": 3313,
      "rows": 3314,
      "riter": 3315,
      "sw": 3316,
      "ected": 3317,
      "OV": 3318,
      "ATE": 3319,
      "▁study": 3320,
      "Message": 3321,
      "default": 3322,
      "page": 3323,
      "▁dra": 3324,
      "status": 3325,
      "▁able": 3326,
      "json": 3327,
      "PE": 3328,
      "verse": 3329,
      "▁impro": 3330,
      "umi": 3331,
      "ESS": 3332,
      "▁error": 3333,
      "board": 3334,
      "cs": 3335,
      "▁ali": 3336,
      "▁tell": 3337,
      "▁bad": 3338,
      "▁By": 3339,
      "Ro": 3340,
      "▁indust": 3341,
      "Class": 3342,
      "▁enter": 3343,
      "▁Har": 3344,
      "hand": 3345,
      "▁Dep": 3346,
      "▁indic": 3347,
      "▁identi": 3348,
      "▁bot": 3349,
      "▁John": 3350,
      "Sub": 3351,
      "▁array": 3352,
      "lid": 3353,
      "▁night": 3354,
      "▁og": 3355,
      "▁job": 3356,
      "ming": 3357,
      "▁sw": 3358,
      "▁including": 3359,
      "ging": 3360,
      "▁success": 3361,
      "medi": 3362,
      "CC": 3363,
      "▁ever": 3364,
      "▁catch": 3365,
      "▁ener": 3366,
      "ball": 3367,
      "ides": 3368,
      "static": 3369,
      "▁money": 3370,
      "point": 3371,
      "▁having": 3372,
      "▁bal": 3373,
      "ounds": 3374,
      "joy": 3375,
      "▁break": 3376,
      "▁cm": 3377,
      "gre": 3378,
      "▁press": 3379,
      "tri": 3380,
      "▁content": 3381,
      "▁indiv": 3382,
      "▁certain": 3383,
      "▁partic": 3384,
      "▁hold": 3385,
      "▁pack": 3386,
      "▁close": 3387,
      "super": 3388,
      "init": 3389,
      "اد": 3390,
      "TS": 3391,
      "▁came": 3392,
      "▁som": 3393,
      "sia": 3394,
      "ford": 3395,
      "TON": 3396,
      "pm": 3397,
      "append": 3398,
      "IB": 3399,
      "▁bes": 3400,
      "▁mem": 3401,
      "▁due": 3402,
      "▁mind": 3403,
      "''": 3404,
      "ban": 3405,
      "ade": 3406,
      "▁complete": 3407,
      "lected": 3408,
      "▁code": 3409,
      "▁vi": 3410,
      "▁style": 3411,
      "▁tal": 3412,
      "▁city": 3413,
      "па": 3414,
      "Cre": 3415,
      "▁later": 3416,
      "▁Jan": 3417,
      "▁try": 3418,
      "▁dat": 3419,
      "ون": 3420,
      "▁thought": 3421,
      "most": 3422,
      "zi": 3423,
      "ferences": 3424,
      "▁cook": 3425,
      "▁author": 3426,
      "osp": 3427,
      "▁One": 3428,
      "cies": 3429,
      "anguage": 3430,
      "▁об": 3431,
      "Node": 3432,
      "▁past": 3433,
      "▁working": 3434,
      "ecu": 3435,
      "ilt": 3436,
      "▁extra": 3437,
      "▁belie": 3438,
      "lies": 3439,
      "▁site": 3440,
      "▁dig": 3441,
      "df": 3442,
      "▁taken": 3443,
      "endo": 3444,
      "▁Euro": 3445,
      "close": 3446,
      "ну": 3447,
      "▁answer": 3448,
      "ife": 3449,
      "FF": 3450,
      "ov": 3451,
      "▁recom": 3452,
      "bra": 3453,
      "▁means": 3454,
      "./": 3455,
      "▁arg": 3456,
      "urg": 3457,
      "▁Ser": 3458,
      "▁York": 3459,
      "▁necess": 3460,
      "spec": 3461,
      "pes": 3462,
      "show": 3463,
      "▁original": 3464,
      "▁mid": 3465,
      "▁fund": 3466,
      "cen": 3467,
      "▁perf": 3468,
      "Ph": 3469,
      "TEXT": 3470,
      "fri": 3471,
      "atal": 3472,
      "▁vous": 3473,
      "parent": 3474,
      "TR": 3475,
      "▁least": 3476,
      "▁во": 3477,
      "▁pod": 3478,
      "Def": 3479,
      "context": 3480,
      "Fe": 3481,
      "▁based": 3482,
      "ية": 3483,
      "▁report": 3484,
      "▁gran": 3485,
      "▁young": 3486,
      "▁tou": 3487,
      "▁List": 3488,
      "sa": 3489,
      "▁sou": 3490,
      "bert": 3491,
      "Path": 3492,
      "There": 3493,
      "elt": 3494,
      "sha": 3495,
      "***": 3496,
      "style": 3497,
      "▁Sha": 3498,
      "ше": 3499,
      "▁Ass": 3500,
      "nya": 3501,
      "▁го": 3502,
      "اب": 3503,
      "▁reco": 3504,
      "▁development": 3505,
      "eneral": 3506,
      "▁Int": 3507,
      "▁understand": 3508,
      "flo": 3509,
      "elle": 3510,
      "▁Es": 3511,
      "▁Get": 3512,
      "▁continu": 3513,
      "lip": 3514,
      "▁human": 3515,
      "▁treat": 3516,
      "Pros": 3517,
      "▁situ": 3518,
      "▁reason": 3519,
      "▁United": 3520,
      "aster": 3521,
      "▁Count": 3522,
      "ategory": 3523,
      "▁pub": 3524,
      "AGE": 3525,
      "vas": 3526,
      "▁:=": 3527,
      "▁didn": 3528,
      "ду": 3529,
      "▁port": 3530,
      "place": 3531,
      "▁visit": 3532,
      "over": 3533,
      "check": 3534,
      "▁Ber": 3535,
      "AV": 3536,
      "sts": 3537,
      "oud": 3538,
      "uer": 3539,
      "Gener": 3540,
      "ère": 3541,
      "▁project": 3542,
      "▁concer": 3543,
      "cd": 3544,
      "▁services": 3545,
      "Sele": 3546,
      "▁making": 3547,
      "から": 3548,
      "hel": 3549,
      "ned": 3550,
      "▁hor": 3551,
      "▁blo": 3552,
      "Yes": 3553,
      "▁det": 3554,
      "▁nh": 3555,
      "ering": 3556,
      "▁esta": 3557,
      "▁Char": 3558,
      "tal": 3559,
      "names": 3560,
      "▁nicht": 3561,
      "жи": 3562,
      "leep": 3563,
      "api": 3564,
      "ector": 3565,
      "▁wer": 3566,
      "fin": 3567,
      "duc": 3568,
      "▁video": 3569,
      "▁tw": 3570,
      "idget": 3571,
      "▁то": 3572,
      "▁ess": 3573,
      "CL": 3574,
      "hop": 3575,
      "▁women": 3576,
      "▁Ger": 3577,
      "cin": 3578,
      "▁thread": 3579,
      "▁het": 3580,
      "ない": 3581,
      "▁below": 3582,
      "▁К": 3583,
      "▁together": 3584,
      "MA": 3585,
      "▁ta": 3586,
      "▁wall": 3587,
      "▁others": 3588,
      "current": 3589,
      "▁response": 3590,
      "▁proper": 3591,
      "lied": 3592,
      "Trans": 3593,
      "▁enough": 3594,
      "?\"": 3595,
      "AND": 3596,
      "▁Cons": 3597,
      "▁works": 3598,
      "▁yet": 3599,
      "dem": 3600,
      "rea": 3601,
      "Description": 3602,
      "▁ه": 3603,
      "From": 3604,
      "ori": 3605,
      "ured": 3606,
      "ji": 3607,
      "cil": 3608,
      "▁bed": 3609,
      "▁Fe": 3610,
      "Can": 3611,
      "IE": 3612,
      "Group": 3613,
      "▁quality": 3614,
      "▁link": 3615,
      "PO": 3616,
      "▁خ": 3617,
      "▁educ": 3618,
      "▁amount": 3619,
      "group": 3620,
      "unk": 3621,
      "config": 3622,
      "▁PICTOGRAM": 3623,
      "▁seen": 3624,
      "imum": 3625,
      "SS": 3626,
      "Element": 3627,
      "лу": 3628,
      "сь": 3629,
      "query": 3630,
      "▁once": 3631,
      "PL": 3632,
      "▁avec": 3633,
      "▁pati": 3634,
      "▁RE": 3635,
      "▁Her": 3636,
      "base": 3637,
      "cience": 3638,
      "▁neg": 3639,
      "▁स": 3640,
      "▁space": 3641,
      "……": 3642,
      "Layout": 3643,
      "valid": 3644,
      "ски": 3645,
      "▁today": 3646,
      "child": 3647,
      "▁looking": 3648,
      "vie": 3649,
      "▁online": 3650,
      "▁الم": 3651,
      "▁cut": 3652,
      "▁||": 3653,
      "▁hom": 3654,
      "find": 3655,
      "▁ir": 3656,
      "pril": 3657,
      "▁provide": 3658,
      "mal": 3659,
      "tainer": 3660,
      "▁record": 3661,
      "dle": 3662,
      "Back": 3663,
      "▁unt": 3664,
      "arr": 3665,
      "▁particular": 3666,
      ",\r": 3667,
      "▁position": 3668,
      "cou": 3669,
      "▁Sie": 3670,
      "iste": 3671,
      "ume": 3672,
      "]);": 3673,
      "verage": 3674,
      "roduction": 3675,
      "logical": 3676,
      "▁espec": 3677,
      "Input": 3678,
      "▁research": 3679,
      "rel": 3680,
      "[\"": 3681,
      "bl": 3682,
      "enu": 3683,
      "▁access": 3684,
      "▁live": 3685,
      "са": 3686,
      "▁etc": 3687,
      "member": 3688,
      "lier": 3689,
      "▁required": 3690,
      "▁cra": 3691,
      "▁entre": 3692,
      "amples": 3693,
      "▁vir": 3694,
      "▁often": 3695,
      "▁More": 3696,
      "▁een": 3697,
      "Sp": 3698,
      "▁Ho": 3699,
      "▁sich": 3700,
      "▁та": 3701,
      "▁Gra": 3702,
      "▁path": 3703,
      "down": 3704,
      "console": 3705,
      "▁econom": 3706,
      "▁include": 3707,
      ":\r": 3708,
      "▁win": 3709,
      "▁من": 3710,
      "frame": 3711,
      "▁price": 3712,
      "▁sil": 3713,
      "plate": 3714,
      "OC": 3715,
      "button": 3716,
      "му": 3717,
      "▁Dr": 3718,
      "▁probab": 3719,
      "Abstract": 3720,
      "++)": 3721,
      "una": 3722,
      "^{\\": 3723,
      "▁specific": 3724,
      "▁American": 3725,
      "Car": 3726,
      "ско": 3727,
      "Web": 3728,
      "dir": 3729,
      "urity": 3730,
      "▁along": 3731,
      "tiv": 3732,
      "▁whole": 3733,
      "ressed": 3734,
      "ulture": 3735,
      "ctivity": 3736,
      "Label": 3737,
      "struction": 3738,
      "▁aw": 3739,
      "▁Ob": 3740,
      "▁box": 3741,
      "▁Pe": 3742,
      "▁please": 3743,
      "Config": 3744,
      "ixed": 3745,
      "ani": 3746,
      "lica": 3747,
      "Play": 3748,
      "▁personal": 3749,
      "сть": 3750,
      "Comp": 3751,
      "▁mes": 3752,
      "ened": 3753,
      "++;": 3754,
      "----------------": 3755,
      "ès": 3756,
      "▁several": 3757,
      "Hand": 3758,
      "▁»": 3759,
      "▁heart": 3760,
      "▁τ": 3761,
      "*/\r": 3762,
      "▁hours": 3763,
      "▁contact": 3764,
      "last": 3765,
      "▁These": 3766,
      "minist": 3767,
      "phi": 3768,
      "▁Comp": 3769,
      "yer": 3770,
      "UE": 3771,
      "▁input": 3772,
      "▁products": 3773,
      "▁arti": 3774,
      "▁foto": 3775,
      "▁Trans": 3776,
      "▁из": 3777,
      "▁members": 3778,
      "▁strong": 3779,
      "ited": 3780,
      "▁flow": 3781,
      "▁points": 3782,
      "▁redu": 3783,
      "ño": 3784,
      "orage": 3785,
      "iving": 3786,
      "▁students": 3787,
      "▁Sep": 3788,
      "NA": 3789,
      "▁Mc": 3790,
      "رو": 3791,
      "ный": 3792,
      "Mar": 3793,
      "liz": 3794,
      "▁posi": 3795,
      "▁Sta": 3796,
      "▁version": 3797,
      "▁Cl": 3798,
      "avax": 3799,
      "Bar": 3800,
      "iver": 3801,
      "ists": 3802,
      "▁inclu": 3803,
      "▁Die": 3804,
      "ators": 3805,
      "▁fit": 3806,
      "dom": 3807,
      "Controller": 3808,
      "rix": 3809,
      "▁på": 3810,
      "▁individual": 3811,
      "anger": 3812,
      "false": 3813,
      "ré": 3814,
      "▁went": 3815,
      "▁signific": 3816,
      "PS": 3817,
      "▁common": 3818,
      "entral": 3819,
      "▁در": 3820,
      "▁single": 3821,
      "cis": 3822,
      "Manager": 3823,
      "▁background": 3824,
      "▁discus": 3825,
      "valu": 3826,
      "PR": 3827,
      "▁Di": 3828,
      "eader": 3829,
      "▁benef": 3830,
      "▁become": 3831,
      "▁mal": 3832,
      "▁makes": 3833,
      "▁dos": 3834,
      "ledge": 3835,
      "▁known": 3836,
      "abase": 3837,
      "▁government": 3838,
      "bon": 3839,
      "request": 3840,
      "▁sent": 3841,
      "Sh": 3842,
      "ши": 3843,
      "Sec": 3844,
      "té": 3845,
      "▁log": 3846,
      "ще": 3847,
      "▁Cre": 3848,
      "author": 3849,
      "ially": 3850,
      "▁TO": 3851,
      "▁ü": 3852,
      "▁request": 3853,
      "▁М": 3854,
      "▁World": 3855,
      "alt": 3856,
      "omin": 3857,
      "▁States": 3858,
      "▁descri": 3859,
      "ested": 3860,
      "isa": 3861,
      "utiful": 3862,
      "ao": 3863,
      "bb": 3864,
      "uments": 3865,
      "otor": 3866,
      "cope": 3867,
      "▁blue": 3868,
      "ين": 3869,
      "ela": 3870,
      "lik": 3871,
      "ented": 3872,
      "_{\\": 3873,
      "posit": 3874,
      "ami": 3875,
      "mend": 3876,
      "witter": 3877,
      "CON": 3878,
      "▁om": 3879,
      "пи": 3880,
      "▁fall": 3881,
      "ameter": 3882,
      "▁Your": 3883,
      "iento": 3884,
      "▁major": 3885,
      "iles": 3886,
      "Method": 3887,
      "Att": 3888,
      "TE": 3889,
      "▁simple": 3890,
      "▁season": 3891,
      "ellow": 3892,
      "▁Je": 3893,
      "pond": 3894,
      "▁took": 3895,
      "▁Aug": 3896,
      "Good": 3897,
      "End": 3898,
      "She": 3899,
      "▁doing": 3900,
      "ги": 3901,
      "する": 3902,
      "▁clean": 3903,
      "▁story": 3904,
      "▁news": 3905,
      "▁either": 3906,
      "▁words": 3907,
      "Result": 3908,
      "used": 3909,
      "▁parent": 3910,
      "▁age": 3911,
      "▁ह": 3912,
      "sm": 3913,
      "lia": 3914,
      "uch": 3915,
      "ift": 3916,
      "die": 3917,
      "▁learn": 3918,
      "END": 3919,
      "▁questions": 3920,
      "▁index": 3921,
      "▁City": 3922,
      "otel": 3923,
      "mathbf": 3924,
      "unch": 3925,
      "idden": 3926,
      "▁als": 3927,
      "iner": 3928,
      "}(": 3929,
      "▁Up": 3930,
      "lege": 3931,
      "▁among": 3932,
      "▁half": 3933,
      "icture": 3934,
      "Rec": 3935,
      "▁future": 3936,
      "node": 3937,
      "ju": 3938,
      "ML": 3939,
      "temp": 3940,
      "ald": 3941,
      "null": 3942,
      "Response": 3943,
      "вы": 3944,
      "▁mag": 3945,
      "height": 3946,
      "▁aut": 3947,
      "fully": 3948,
      "▁Sm": 3949,
      "tings": 3950,
      "ные": 3951,
      "▁market": 3952,
      "phone": 3953,
      "▁hat": 3954,
      "▁-->": 3955,
      "▁fre": 3956,
      "Sha": 3957,
      "▁ago": 3958,
      "▁Pres": 3959,
      "▁Rec": 3960,
      "▁pret": 3961,
      "see": 3962,
      "▁block": 3963,
      "(){": 3964,
      "▁ya": 3965,
      "ability": 3966,
      "▁fire": 3967,
      "▁similar": 3968,
      "▁message": 3969,
      "pu": 3970,
      "eded": 3971,
      "▁kom": 3972,
      "▁ج": 3973,
      "▁rate": 3974,
      "ند": 3975,
      "---": 3976,
      "ول": 3977,
      "▁->": 3978,
      "llo": 3979,
      "▁easy": 3980,
      "▁ur": 3981,
      "ici": 3982,
      "ön": 3983,
      "▁Er": 3984,
      "ym": 3985,
      "▁address": 3986,
      "ту": 3987,
      "pared": 3988,
      "ilities": 3989,
      "▁Ang": 3990,
      "HT": 3991,
      "aly": 3992,
      "▁вы": 3993,
      "▁eine": 3994,
      "atur": 3995,
      "Tok": 3996,
      "Figure": 3997,
      "▁via": 3998,
      "ives": 3999,
      "лю": 4000,
      "▁Cour": 4001,
      "pis": 4002,
      "nology": 4003,
      "▁este": 4004,
      "▁estab": 4005,
      "UTTON": 4006,
      "Bo": 4007,
      "▁bri": 4008,
      "▁https": 4009,
      "uts": 4010,
      "▁Sim": 4011,
      "apan": 4012,
      "ners": 4013,
      "uty": 4014,
      "▁measure": 4015,
      "ria": 4016,
      "hotos": 4017,
      "▁object": 4018,
      "NE": 4019,
      "▁Imp": 4020,
      "▁sie": 4021,
      "Action": 4022,
      "PD": 4023,
      "▁further": 4024,
      "▁ма": 4025,
      "▁needs": 4026,
      "Sty": 4027,
      "ット": 4028,
      "▁CH": 4029,
      "Form": 4030,
      "=>": 4031,
      "xy": 4032,
      "FA": 4033,
      "▁friend": 4034,
      "▁values": 4035,
      "▁q": 4036,
      "▁period": 4037,
      "One": 4038,
      "▁è": 4039,
      "Equ": 4040,
      "▁Jo": 4041,
      "▁provid": 4042,
      "semb": 4043,
      "cias": 4044,
      "tember": 4045,
      "Status": 4046,
      "oute": 4047,
      "tention": 4048,
      "chie": 4049,
      "oria": 4050,
      "▁ре": 4051,
      "mitted": 4052,
      "▁pers": 4053,
      "agram": 4054,
      "tional": 4055,
      "Line": 4056,
      "ador": 4057,
      "▁mode": 4058,
      "▁front": 4059,
      "println": 4060,
      "▁early": 4061,
      "▁Bri": 4062,
      "▁months": 4063,
      "cz": 4064,
      "▁step": 4065,
      "peti": 4066,
      "vol": 4067,
      "▁dal": 4068,
      "tected": 4069,
      "▁wel": 4070,
      "option": 4071,
      "▁soft": 4072,
      "▁ב": 4073,
      "kin": 4074,
      "▁Red": 4075,
      "▁card": 4076,
      "▁hope": 4077,
      "▁friends": 4078,
      "▁bag": 4079,
      "ocus": 4080,
      "zione": 4081,
      "▁Mark": 4082,
      "OK": 4083,
      "▁analysis": 4084,
      "year": 4085,
      "write": 4086,
      "▁invol": 4087,
      "▁fla": 4088,
      "▁limit": 4089,
      "▁None": 4090,
      "▁stra": 4091,
      "▁ing": 4092,
      "▁tax": 4093,
      "▁National": 4094,
      "▁emb": 4095,
      "▁temper": 4096,
      "ista": 4097,
      "▁doesn": 4098,
      "onent": 4099,
      "▁series": 4100,
      "teger": 4101,
      "event": 4102,
      "▁`": 4103,
      "▁في": 4104,
      "▁five": 4105,
      "▁relations": 4106,
      "bot": 4107,
      "▁mais": 4108,
      "▁Sa": 4109,
      "oles": 4110,
      "estro": 4111,
      "setcounter": 4112,
      "▁fem": 4113,
      "ça": 4114,
      "When": 4115,
      "▁Н": 4116,
      "andom": 4117,
      "▁IS": 4118,
      "ın": 4119,
      "omb": 4120,
      "ました": 4121,
      "Auto": 4122,
      "lev": 4123,
      "uary": 4124,
      "▁javax": 4125,
      "▁diffic": 4126,
      "Thank": 4127,
      "sto": 4128,
      "CO": 4129,
      "▁ל": 4130,
      "▁Ag": 4131,
      "{~": 4132,
      "▁ru": 4133,
      "▁energy": 4134,
      "▁А": 4135,
      "▁dr": 4136,
      "▁lu": 4137,
      "avid": 4138,
      "▁hu": 4139,
      "▁pal": 4140,
      "open": 4141,
      "!--": 4142,
      "▁War": 4143,
      "Enti": 4144,
      "▁Data": 4145,
      "inf": 4146,
      "MS": 4147,
      "tica": 4148,
      "▁Gre": 4149,
      "lice": 4150,
      "▁ح": 4151,
      "▁print": 4152,
      "istic": 4153,
      "▁vers": 4154,
      "▁Bra": 4155,
      "tex": 4156,
      "Ne": 4157,
      "▁natural": 4158,
      "▁community": 4159,
      "roups": 4160,
      "imen": 4161,
      "ере": 4162,
      "tained": 4163,
      "▁mic": 4164,
      "ply": 4165,
      "enumi": 4166,
      "lio": 4167,
      "▁death": 4168,
      "▁TH": 4169,
      "NS": 4170,
      "▁те": 4171,
      "das": 4172,
      "////": 4173,
      "Number": 4174,
      "func": 4175,
      "▁sea": 4176,
      "▁CON": 4177,
      "cast": 4178,
      "▁NULL": 4179,
      "▁deal": 4180,
      "▁Am": 4181,
      "abstract": 4182,
      "ordin": 4183,
      "redit": 4184,
      "cker": 4185,
      "▁מ": 4186,
      "▁however": 4187,
      "nie": 4188,
      "though": 4189,
      "▁kh": 4190,
      "▁length": 4191,
      "▁added": 4192,
      "▁circ": 4193,
      "ribution": 4194,
      "script": 4195,
      "irs": 4196,
      "▁auch": 4197,
      "eah": 4198,
      "▁double": 4199,
      "Pr": 4200,
      "range": 4201,
      "▁conditions": 4202,
      "▁told": 4203,
      "▁Christ": 4204,
      "ای": 4205,
      "ود": 4206,
      "▁א": 4207,
      "Exp": 4208,
      "each": 4209,
      "orks": 4210,
      "▁High": 4211,
      "aby": 4212,
      "▁Some": 4213,
      "ной": 4214,
      "orge": 4215,
      "▁ground": 4216,
      "ttp": 4217,
      "▁Set": 4218,
      "fied": 4219,
      "olume": 4220,
      "▁ba": 4221,
      "▁dise": 4222,
      "gt": 4223,
      "▁/>": 4224,
      "▁getting": 4225,
      "▁elect": 4226,
      "▁property": 4227,
      "location": 4228,
      "RA": 4229,
      "vert": 4230,
      "▁wan": 4231,
      "▁effect": 4232,
      "▁famili": 4233,
      "▁watch": 4234,
      "▁„": 4235,
      "▁release": 4236,
      "Content": 4237,
      "▁Europe": 4238,
      "▁hon": 4239,
      "▁($": 4240,
      "cion": 4241,
      "gress": 4242,
      "version": 4243,
      "▁associ": 4244,
      "▁sor": 4245,
      "lam": 4246,
      "▁actually": 4247,
      "chi": 4248,
      "▁School": 4249,
      "response": 4250,
      ".-": 4251,
      "▁Air": 4252,
      "atory": 4253,
      "▁Ju": 4254,
      "ées": 4255,
      "▁phys": 4256,
      "▁Don": 4257,
      "push": 4258,
      "ulla": 4259,
      "ید": 4260,
      "▁sig": 4261,
      "ridge": 4262,
      "▁princip": 4263,
      "clusion": 4264,
      "ournal": 4265,
      "}=": 4266,
      "just": 4267,
      "▁idea": 4268,
      "▁lat": 4269,
      "▁whether": 4270,
      "nos": 4271,
      "ondon": 4272,
      "QU": 4273,
      "font": 4274,
      "▁gar": 4275,
      "-\\": 4276,
      "acy": 4277,
      "ного": 4278,
      "ses": 4279,
      "long": 4280,
      "▁history": 4281,
      "▁various": 4282,
      "update": 4283,
      "▁Sub": 4284,
      "▁nothing": 4285,
      "▁cy": 4286,
      "▁favor": 4287,
      "▁sche": 4288,
      "ternal": 4289,
      "std": 4290,
      "amente": 4291,
      "ITY": 4292,
      "▁я": 4293,
      "▁的": 4294,
      "▁issue": 4295,
      "▁music": 4296,
      "▁draw": 4297,
      "echo": 4298,
      "ault": 4299,
      "мен": 4300,
      "▁vector": 4301,
      "こと": 4302,
      "▁source": 4303,
      "ameters": 4304,
      "fs": 4305,
      "▁illust": 4306,
      "▁wait": 4307,
      "number": 4308,
      "enden": 4309,
      "engan": 4310,
      "inner": 4311,
      "▁sav": 4312,
      "▁enjoy": 4313,
      "gal": 4314,
      "vestig": 4315,
      "▁South": 4316,
      "vember": 4317,
      "▁moment": 4318,
      "▁represent": 4319,
      "▁quick": 4320,
      "hic": 4321,
      "namespace": 4322,
      "▁woman": 4323,
      "▁Of": 4324,
      "eds": 4325,
      "lash": 4326,
      "ube": 4327,
      "output": 4328,
      "quare": 4329,
      "lang": 4330,
      "▁AP": 4331,
      "risti": 4332,
      "▁och": 4333,
      "Acc": 4334,
      "ctober": 4335,
      "ART": 4336,
      "▁section": 4337,
      "itar": 4338,
      "ands": 4339,
      "▁His": 4340,
      "▁anything": 4341,
      "tron": 4342,
      "▁sobre": 4343,
      "sig": 4344,
      "▁mach": 4345,
      "Cha": 4346,
      "▁bring": 4347,
      "▁pic": 4348,
      "display": 4349,
      "KE": 4350,
      "▁asked": 4351,
      "cas": 4352,
      "inder": 4353,
      "arrow": 4354,
      "Imp": 4355,
      "uss": 4356,
      "aria": 4357,
      "tee": 4358,
      "▁ق": 4359,
      "ungen": 4360,
      "tell": 4361,
      "cade": 4362,
      "▁minutes": 4363,
      "▁bio": 4364,
      "ende": 4365,
      "rl": 4366,
      "ctr": 4367,
      "▁paper": 4368,
      "cover": 4369,
      "lad": 4370,
      "▁Let": 4371,
      "▁Date": 4372,
      "▁Mat": 4373,
      "▁pol": 4374,
      "odes": 4375,
      "▁road": 4376,
      "ORT": 4377,
      "▁Sal": 4378,
      "tead": 4379,
      "▁pain": 4380,
      "▁cases": 4381,
      "istics": 4382,
      "havi": 4383,
      "▁для": 4384,
      "Why": 4385,
      "weet": 4386,
      "pportun": 4387,
      "ono": 4388,
      "▁sun": 4389,
      "========": 4390,
      "▁matter": 4391,
      "▁Lu": 4392,
      "formed": 4393,
      "▁gold": 4394,
      "▁پ": 4395,
      "ты": 4396,
      "Emp": 4397,
      "About": 4398,
      "rong": 4399,
      "▁br": 4400,
      "▁cat": 4401,
      "OU": 4402,
      "▁map": 4403,
      "'''": 4404,
      "web": 4405,
      "▁Ter": 4406,
      "▁Sto": 4407,
      "▁target": 4408,
      "():": 4409,
      "зо": 4410,
      "Sc": 4411,
      "▁load": 4412,
      "tual": 4413,
      "▁Now": 4414,
      "▁seg": 4415,
      "▁million": 4416,
      "Check": 4417,
      "▁Li": 4418,
      "▁stri": 4419,
      "ium": 4420,
      "▁determin": 4421,
      "▁Park": 4422,
      "ights": 4423,
      "reet": 4424,
      "lain": 4425,
      "`;": 4426,
      "ped": 4427,
      "Load": 4428,
      "▁bl": 4429,
      "change": 4430,
      "▁spo": 4431,
      "dium": 4432,
      "▁green": 4433,
      "▁perfect": 4434,
      "Fo": 4435,
      "тель": 4436,
      "\"]": 4437,
      "▁Tech": 4438,
      "ening": 4439,
      "hich": 4440,
      "actory": 4441,
      "▁six": 4442,
      "▁ي": 4443,
      "▁door": 4444,
      "▁soon": 4445,
      "▁Pl": 4446,
      "▁Fin": 4447,
      "▁Fo": 4448,
      "gl": 4449,
      "▁Ke": 4450,
      "▁website": 4451,
      "SON": 4452,
      "uses": 4453,
      "Don": 4454,
      "fication": 4455,
      "▁June": 4456,
      "gener": 4457,
      "▁ci": 4458,
      "▁arri": 4459,
      "▁nature": 4460,
      "▁almost": 4461,
      "▁CO": 4462,
      "▁Add": 4463,
      "Vis": 4464,
      "ify": 4465,
      "▁);": 4466,
      "▁anim": 4467,
      "raft": 4468,
      "▁ja": 4469,
      "zed": 4470,
      "$$": 4471,
      "ים": 4472,
      "▁environment": 4473,
      "”.": 4474,
      "entes": 4475,
      "asing": 4476,
      "▁Aust": 4477,
      "Entity": 4478,
      "▁Acc": 4479,
      "▁что": 4480,
      "??": 4481,
      "▁March": 4482,
      "INT": 4483,
      "uter": 4484,
      "▁probably": 4485,
      "CTION": 4486,
      "▁به": 4487,
      "▁Mem": 4488,
      "tures": 4489,
      "yal": 4490,
      "▁profession": 4491,
      "▁across": 4492,
      "wood": 4493,
      "▁http": 4494,
      "Tag": 4495,
      "!\"": 4496,
      "▁grand": 4497,
      "hu": 4498,
      "▁comb": 4499,
      "▁normal": 4500,
      "ных": 4501,
      "▁dro": 4502,
      "▁آ": 4503,
      "inks": 4504,
      "selves": 4505,
      "▁pie": 4506,
      "▁num": 4507,
      "They": 4508,
      "▁previous": 4509,
      "▁separ": 4510,
      "▁Dire": 4511,
      "Char": 4512,
      "ified": 4513,
      "▁evid": 4514,
      "▁Mag": 4515,
      "▁areas": 4516,
      "▁od": 4517,
      "ashi": 4518,
      "▁observ": 4519,
      "▁Pr": 4520,
      "Hello": 4521,
      "olf": 4522,
      "▁according": 4523,
      "jer": 4524,
      "▁particip": 4525,
      "lt": 4526,
      "\").": 4527,
      "endent": 4528,
      "iol": 4529,
      "▁decision": 4530,
      "CR": 4531,
      "ota": 4532,
      "ciety": 4533,
      "amin": 4534,
      "antes": 4535,
      "cember": 4536,
      "auto": 4537,
      "▁kit": 4538,
      "▁Feb": 4539,
      "▁sel": 4540,
      "irit": 4541,
      "arm": 4542,
      "▁Out": 4543,
      "▁search": 4544,
      "Token": 4545,
      "▁config": 4546,
      "▁building": 4547,
      "lections": 4548,
      "▁comes": 4549,
      "ем": 4550,
      "▁document": 4551,
      "▁problems": 4552,
      "▁everything": 4553,
      "rig": 4554,
      "aste": 4555,
      "▁Web": 4556,
      "▁cause": 4557,
      "▁solution": 4558,
      "▁changes": 4559,
      "▁However": 4560,
      "▁options": 4561,
      "▁media": 4562,
      "▁terms": 4563,
      "▁believe": 4564,
      "sequ": 4565,
      "▁Home": 4566,
      "Med": 4567,
      "Util": 4568,
      "bes": 4569,
      "Row": 4570,
      "▁UN": 4571,
      "▁qual": 4572,
      "Link": 4573,
      "▁len": 4574,
      "acity": 4575,
      "double": 4576,
      "umbers": 4577,
      "dig": 4578,
      "lim": 4579,
      "vey": 4580,
      "▁lower": 4581,
      "rial": 4582,
      "udio": 4583,
      "▁production": 4584,
      "ות": 4585,
      "▁dev": 4586,
      "▁प": 4587,
      "istry": 4588,
      "▁West": 4589,
      "▁Д": 4590,
      "▁party": 4591,
      "▁film": 4592,
      "Str": 4593,
      "bug": 4594,
      "usiness": 4595,
      ")}": 4596,
      "Edit": 4597,
      "▁ban": 4598,
      "mbol": 4599,
      "▁held": 4600,
      "▁update": 4601,
      "▁girl": 4602,
      "▁\\%": 4603,
      "▁started": 4604,
      "ños": 4605,
      "▁Off": 4606,
      "sets": 4607,
      "▁jud": 4608,
      "Client": 4609,
      "▁PRO": 4610,
      "▁fi": 4611,
      "▁North": 4612,
      "lib": 4613,
      "email": 4614,
      "format": 4615,
      "▁King": 4616,
      "▁á": 4617,
      "▁Str": 4618,
      "cio": 4619,
      "isi": 4620,
      "▁cau": 4621,
      "▁Mus": 4622,
      "▁April": 4623,
      "▁court": 4624,
      "isted": 4625,
      "▁Il": 4626,
      "obj": 4627,
      "▁eyes": 4628,
      "▁cast": 4629,
      "▁someone": 4630,
      "▁buy": 4631,
      "Net": 4632,
      "▁Mor": 4633,
      "▁ok": 4634,
      "ér": 4635,
      "render": 4636,
      "▁===": 4637,
      "▁share": 4638,
      "▁Pat": 4639,
      "це": 4640,
      "▁nor": 4641,
      "tik": 4642,
      "UP": 4643,
      "▁rather": 4644,
      "▁English": 4645,
      "▁provided": 4646,
      "▁necessary": 4647,
      "rend": 4648,
      "▁pp": 4649,
      "ック": 4650,
      "REEN": 4651,
      "щи": 4652,
      "▁vac": 4653,
      "orted": 4654,
      "ington": 4655,
      "▁wood": 4656,
      "▁repor": 4657,
      "▁Ben": 4658,
      "▁store": 4659,
      "▁After": 4660,
      "▁nie": 4661,
      "▁inc": 4662,
      "ABLE": 4663,
      "▁meet": 4664,
      "▁performance": 4665,
      "Listener": 4666,
      "▁exten": 4667,
      "ev": 4668,
      "ola": 4669,
      "▁note": 4670,
      "▁Test": 4671,
      "anda": 4672,
      "▁stop": 4673,
      "▁pred": 4674,
      "▁hear": 4675,
      "inger": 4676,
      "ws": 4677,
      "More": 4678,
      "final": 4679,
      "▁title": 4680,
      "▁View": 4681,
      "▁tan": 4682,
      "ARY": 4683,
      "▁oil": 4684,
      "IZ": 4685,
      "vities": 4686,
      "ông": 4687,
      "yna": 4688,
      "Style": 4689,
      "conne": 4690,
      "▁details": 4691,
      "▁stay": 4692,
      "thon": 4693,
      "ribut": 4694,
      "redi": 4695,
      "DU": 4696,
      "▁alle": 4697,
      "${": 4698,
      "▁shown": 4699,
      "Ret": 4700,
      "▁foot": 4701,
      "more": 4702,
      "▁comments": 4703,
      "}{|": 4704,
      "alpha": 4705,
      "protected": 4706,
      "▁July": 4707,
      "*]": 4708,
      "▁mm": 4709,
      "▁ich": 4710,
      "Column": 4711,
      "ów": 4712,
      "▁looks": 4713,
      "пе": 4714,
      "ор": 4715,
      "dad": 4716,
      "▁Stat": 4717,
      "▁Cap": 4718,
      "▁bei": 4719,
      "。”": 4720,
      "▁Plan": 4721,
      "▁az": 4722,
      "▁Bro": 4723,
      "▁application": 4724,
      "aux": 4725,
      "reme": 4726,
      "▁ك": 4727,
      "hind": 4728,
      "ago": 4729,
      "iler": 4730,
      "▁role": 4731,
      "▁extends": 4732,
      "ALL": 4733,
      "▁dies": 4734,
      "istory": 4735,
      "object": 4736,
      "tor": 4737,
      "Post": 4738,
      "fy": 4739,
      "▁increase": 4740,
      "aves": 4741,
      "ан": 4742,
      "berg": 4743,
      "dian": 4744,
      "▁म": 4745,
      "▁де": 4746,
      "you": 4747,
      "▁della": 4748,
      "▁advan": 4749,
      "xim": 4750,
      "iling": 4751,
      "▁names": 4752,
      "fr": 4753,
      "▁staff": 4754,
      "▁но": 4755,
      "▁quite": 4756,
      "▁member": 4757,
      "さん": 4758,
      "cla": 4759,
      "▁fer": 4760,
      "▁heav": 4761,
      "!!!": 4762,
      "▁О": 4763,
      "bile": 4764,
      "▁private": 4765,
      "UG": 4766,
      "sg": 4767,
      "UB": 4768,
      "bility": 4769,
      "▁training": 4770,
      "▁improve": 4771,
      "Control": 4772,
      "▁refer": 4773,
      "▁ש": 4774,
      "▁nos": 4775,
      "ät": 4776,
      "rio": 4777,
      "ní": 4778,
      "See": 4779,
      "aur": 4780,
      "▁ID": 4781,
      "ís": 4782,
      "▁loss": 4783,
      "▁everyone": 4784,
      "ograph": 4785,
      "▁pretty": 4786,
      "▁finan": 4787,
      "▁pick": 4788,
      "float": 4789,
      "▁han": 4790,
      "▁Post": 4791,
      "▁tor": 4792,
      "▁vot": 4793,
      "eld": 4794,
      "uni": 4795,
      "ου": 4796,
      "Ref": 4797,
      "tit": 4798,
      "eren": 4799,
      "▁engine": 4800,
      "▁email": 4801,
      "ITEM": 4802,
      "rest": 4803,
      "ospital": 4804,
      "▁entire": 4805,
      "UD": 4806,
      "▁context": 4807,
      "▁uma": 4808,
      "▁Dec": 4809,
      "▁match": 4810,
      "▁ans": 4811,
      "oop": 4812,
      "▁SE": 4813,
      "▁Read": 4814,
      "▁management": 4815,
      "free": 4816,
      "▁cos": 4817,
      "▁saw": 4818,
      "▁valid": 4819,
      "▁Text": 4820,
      "Results": 4821,
      "▁alg": 4822,
      "Spec": 4823,
      "▁appear": 4824,
      "▁Fri": 4825,
      "▁August": 4826,
      "▁се": 4827,
      "▁Dan": 4828,
      "▁plant": 4829,
      "▁forward": 4830,
      "Menu": 4831,
      "▁opportun": 4832,
      "};\r": 4833,
      "win": 4834,
      "▁sound": 4835,
      "▁[*]": 4836,
      "▁ord": 4837,
      "いる": 4838,
      "▁Def": 4839,
      "PA": 4840,
      "bum": 4841,
      "alle": 4842,
      "fit": 4843,
      "▁office": 4844,
      "▁From": 4845,
      "signed": 4846,
      "▁fast": 4847,
      "▁dengan": 4848,
      "nav": 4849,
      "▁ви": 4850,
      "root": 4851,
      "stream": 4852,
      "▁Rus": 4853,
      "band": 4854,
      "contin": 4855,
      "▁пре": 4856,
      "▁با": 4857,
      "Here": 4858,
      "▁See": 4859,
      "oro": 4860,
      "▁Spec": 4861,
      "rame": 4862,
      "umin": 4863,
      "encia": 4864,
      "▁untuk": 4865,
      "▁nice": 4866,
      "PRO": 4867,
      "▁dark": 4868,
      "etch": 4869,
      "Top": 4870,
      "▁higher": 4871,
      "▁remo": 4872,
      "▁dou": 4873,
      "▁sell": 4874,
      "eam": 4875,
      "|}": 4876,
      "▁install": 4877,
      "first": 4878,
      "▁agre": 4879,
      "▁needed": 4880,
      "▁width": 4881,
      "Draw": 4882,
      "Title": 4883,
      "INE": 4884,
      "}+": 4885,
      "TY": 4886,
      "▁hit": 4887,
      "URE": 4888,
      "pository": 4889,
      "▁News": 4890,
      "▁ant": 4891,
      "зи": 4892,
      "▁invest": 4893,
      ".;": 4894,
      "ная": 4895,
      "asy": 4896,
      "▁Time": 4897,
      "').": 4898,
      "Oh": 4899,
      "translation": 4900,
      "▁san": 4901,
      "Module": 4902,
      "dev": 4903,
      "olute": 4904,
      "▁ses": 4905,
      "▁third": 4906,
      "fort": 4907,
      "▁Class": 4908,
      "Eng": 4909,
      "▁sug": 4910,
      "▁mé": 4911,
      "Create": 4912,
      "▁condition": 4913,
      "May": 4914,
      "▁happy": 4915,
      "▁himself": 4916,
      "aces": 4917,
      "▁shows": 4918,
      "▁House": 4919,
      "sian": 4920,
      "▁FOR": 4921,
      "CA": 4922,
      "ufact": 4923,
      "▁board": 4924,
      "call": 4925,
      "▁User": 4926,
      "▁sont": 4927,
      "ibr": 4928,
      "Go": 4929,
      "▁seems": 4930,
      "▁ple": 4931,
      "▁ut": 4932,
      "Us": 4933,
      "▁sup": 4934,
      "select": 4935,
      "▁fu": 4936,
      "▁significant": 4937,
      "▁status": 4938,
      "ря": 4939,
      "angle": 4940,
      "▁bi": 4941,
      "▁parts": 4942,
      "ised": 4943,
      "lications": 4944,
      "▁Sur": 4945,
      "Gu": 4946,
      "tet": 4947,
      "▁fine": 4948,
      "▁ze": 4949,
      "Mat": 4950,
      "▁blan": 4951,
      "zt": 4952,
      "▁display": 4953,
      "▁oder": 4954,
      "▁surface": 4955,
      "▁received": 4956,
      "Ass": 4957,
      "delete": 4958,
      "▁Mer": 4959,
      "iem": 4960,
      "▁hands": 4961,
      "би": 4962,
      "▁Р": 4963,
      "▁beautiful": 4964,
      "Conne": 4965,
      "ні": 4966,
      "define": 4967,
      "▁Willi": 4968,
      "▁speed": 4969,
      "▁label": 4970,
      "▁teach": 4971,
      "▁cross": 4972,
      "▁\"\"": 4973,
      "urt": 4974,
      "▁national": 4975,
      "iro": 4976,
      "wise": 4977,
      "har": 4978,
      "жа": 4979,
      "Builder": 4980,
      "inite": 4981,
      "▁unit": 4982,
      "Run": 4983,
      "▁option": 4984,
      "▁meng": 4985,
      "▁comment": 4986,
      "▁Т": 4987,
      "via": 4988,
      "▁cool": 4989,
      "Contact": 4990,
      "cat": 4991,
      "▁County": 4992,
      "Fig": 4993,
      "DB": 4994,
      "unit": 4995,
      "fl": 4996,
      "ountain": 4997,
      "▁taking": 4998,
      "mittee": 4999,
      "画像": 5000,
      "▁fish": 5001,
      "mento": 5002,
      "▁sam": 5003,
      "▁issues": 5004,
      "▁ens": 5005,
      "Windows": 5006,
      "erial": 5007,
      "▁amb": 5008,
      "▁Inst": 5009,
      "omas": 5010,
      "▁til": 5011,
      "btn": 5012,
      "Property": 5013,
      "Por": 5014,
      "▁jus": 5015,
      "});\r": 5016,
      "▁command": 5017,
      "Fil": 5018,
      "▁Mal": 5019,
      "▁uti": 5020,
      "▁$_": 5021,
      "▁tele": 5022,
      "like": 5023,
      "Helper": 5024,
      "iction": 5025,
      "▁bien": 5026,
      "▁living": 5027,
      "ester": 5028,
      "▁ww": 5029,
      "ACK": 5030,
      "▁Act": 5031,
      "?”": 5032,
      "▁output": 5033,
      "atives": 5034,
      "▁claim": 5035,
      "True": 5036,
      "uint": 5037,
      "ruary": 5038,
      "▁standard": 5039,
      "▁Then": 5040,
      "Note": 5041,
      "ords": 5042,
      "▁expected": 5043,
      "forma": 5044,
      "▁sit": 5045,
      "eks": 5046,
      "local": 5047,
      "anel": 5048,
      "what": 5049,
      "ldots": 5050,
      "itation": 5051,
      "▁flu": 5052,
      "amily": 5053,
      "▁hair": 5054,
      "ões": 5055,
      "▁travel": 5056,
      "Mic": 5057,
      "▁BUTTON": 5058,
      "iten": 5059,
      "▁className": 5060,
      "▁Day": 5061,
      "▁tro": 5062,
      "▁talk": 5063,
      "Pa": 5064,
      "switch": 5065,
      "Ge": 5066,
      "ilit": 5067,
      "vation": 5068,
      "▁frequ": 5069,
      "rap": 5070,
      "req": 5071,
      "TA": 5072,
      "▁trou": 5073,
      "hot": 5074,
      "▁policy": 5075,
      "isation": 5076,
      "▁leave": 5077,
      "▁article": 5078,
      "▁ini": 5079,
      "▁},": 5080,
      "▁addition": 5081,
      "sie": 5082,
      "▁werden": 5083,
      "igen": 5084,
      "▁bat": 5085,
      "▁center": 5086,
      "active": 5087,
      "▁types": 5088,
      "Start": 5089,
      "rench": 5090,
      "▁subject": 5091,
      "sembly": 5092,
      "cise": 5093,
      "▁round": 5094,
      "Product": 5095,
      "▁бы": 5096,
      "▁force": 5097,
      "Query": 5098,
      "Dec": 5099,
      "▁items": 5100,
      "▁Health": 5101,
      "▁Dist": 5102,
      "▁nav": 5103,
      "▁nach": 5104,
      "▁General": 5105,
      "▁ges": 5106,
      "bool": 5107,
      "▁Chi": 5108,
      "▁·": 5109,
      "LA": 5110,
      "▁boolean": 5111,
      "▁correct": 5112,
      "\");\r": 5113,
      "onents": 5114,
      "▁growth": 5115,
      "elo": 5116,
      "Mem": 5117,
      "Http": 5118,
      "▁features": 5119,
      "Like": 5120,
      "一个": 5121,
      "än": 5122,
      "▁worth": 5123,
      "▁می": 5124,
      "▁za": 5125,
      "▁investig": 5126,
      "hold": 5127,
      "uth": 5128,
      "msg": 5129,
      "ACT": 5130,
      "Point": 5131,
      "▁German": 5132,
      "zu": 5133,
      "▁tom": 5134,
      "▁vs": 5135,
      "target": 5136,
      "▁gas": 5137,
      "▁Service": 5138,
      "zie": 5139,
      "▁led": 5140,
      "rem": 5141,
      "ما": 5142,
      "▁plat": 5143,
      "▁wonder": 5144,
      "éri": 5145,
      "annel": 5146,
      "that": 5147,
      "▁influ": 5148,
      "▁über": 5149,
      "▁archived": 5150,
      "▁Wik": 5151,
      "params": 5152,
      "host": 5153,
      "graphy": 5154,
      "augh": 5155,
      "lly": 5156,
      "SCREEN": 5157,
      "▁treatment": 5158,
      "▁Black": 5159,
      "iden": 5160,
      "nown": 5161,
      "▁outside": 5162,
      "▁coming": 5163,
      "hael": 5164,
      "▁aux": 5165,
      "method": 5166,
      "▁AM": 5167,
      "▁term": 5168,
      "▁song": 5169,
      "▁[]:": 5170,
      "▁weight": 5171,
      "▁lik": 5172,
      "ultural": 5173,
      "cking": 5174,
      "rosoft": 5175,
      "MENT": 5176,
      "rec": 5177,
      "▁games": 5178,
      "▁ak": 5179,
      "eace": 5180,
      "▁Court": 5181,
      "▁mass": 5182,
      "▁Us": 5183,
      "well": 5184,
      "dat": 5185,
      "aciones": 5186,
      "adding": 5187,
      "▁systems": 5188,
      "ート": 5189,
      "▁miss": 5190,
      "▁images": 5191,
      "utor": 5192,
      "▁Bio": 5193,
      "▁liter": 5194,
      "▁Vol": 5195,
      "▁consist": 5196,
      "لا": 5197,
      "▁Department": 5198,
      "▁especially": 5199,
      "Red": 5200,
      "▁location": 5201,
      "▁wo": 5202,
      "ceed": 5203,
      "Min": 5204,
      "draw": 5205,
      "▁wrong": 5206,
      "لى": 5207,
      "iment": 5208,
      "ervices": 5209,
      "pop": 5210,
      "SH": 5211,
      "args": 5212,
      "▁Da": 5213,
      "vider": 5214,
      "thern": 5215,
      "iger": 5216,
      "vor": 5217,
      "▁fran": 5218,
      "Stream": 5219,
      "bro": 5220,
      "▁Les": 5221,
      "aded": 5222,
      "gest": 5223,
      "▁kon": 5224,
      "▁September": 5225,
      "▁subs": 5226,
      "▁va": 5227,
      "▁global": 5228,
      "▁sense": 5229,
      "BO": 5230,
      "▁**": 5231,
      "arning": 5232,
      "▁kan": 5233,
      "▁bon": 5234,
      "Ke": 5235,
      "Cal": 5236,
      "lla": 5237,
      "▁Б": 5238,
      "▁skin": 5239,
      "Attribute": 5240,
      "ises": 5241,
      "lassi": 5242,
      "▁percent": 5243,
      "dated": 5244,
      "▁late": 5245,
      "▁expect": 5246,
      "▁Sw": 5247,
      "▁phone": 5248,
      "dow": 5249,
      "▁usually": 5250,
      "client": 5251,
      "tico": 5252,
      "module": 5253,
      "▁Information": 5254,
      "▁language": 5255,
      "arden": 5256,
      "Base": 5257,
      "OUR": 5258,
      "ville": 5259,
      "adas": 5260,
      "Cl": 5261,
      "mical": 5262,
      "*****": 5263,
      "amos": 5264,
      "▁frame": 5265,
      "▁www": 5266,
      "イン": 5267,
      "ün": 5268,
      "anged": 5269,
      "respond": 5270,
      "▁deep": 5271,
      "▁ме": 5272,
      "Jo": 5273,
      "ander": 5274,
      "可以": 5275,
      "▁Nor": 5276,
      "رد": 5277,
      "▁wa": 5278,
      ")(": 5279,
      "ambi": 5280,
      "idas": 5281,
      "▁London": 5282,
      "lij": 5283,
      "▁deg": 5284,
      "AME": 5285,
      "catch": 5286,
      "Gra": 5287,
      "save": 5288,
      "▁reac": 5289,
      "▁mother": 5290,
      "▁ask": 5291,
      "▁vor": 5292,
      "▁creat": 5293,
      ".'": 5294,
      "iny": 5295,
      "▁sugges": 5296,
      "▁Si": 5297,
      "FI": 5298,
      "▁screen": 5299,
      "ensor": 5300,
      "CK": 5301,
      "▁deci": 5302,
      "▁Super": 5303,
      "▁saf": 5304,
      "Es": 5305,
      "card": 5306,
      "allo": 5307,
      "ASS": 5308,
      "ued": 5309,
      "▁ih": 5310,
      "▁AN": 5311,
      "ising": 5312,
      "aries": 5313,
      "asa": 5314,
      "ored": 5315,
      "▁average": 5316,
      "▁ot": 5317,
      "ар": 5318,
      "DO": 5319,
      "DA": 5320,
      "spring": 5321,
      "inding": 5322,
      "under": 5323,
      "▁Exp": 5324,
      "ある": 5325,
      "▁trying": 5326,
      "▁running": 5327,
      "▁ú": 5328,
      "mid": 5329,
      "▁blood": 5330,
      "Let": 5331,
      "▁раз": 5332,
      "▁temp": 5333,
      "▁regard": 5334,
      "▁IM": 5335,
      "printf": 5336,
      "Call": 5337,
      "ipment": 5338,
      "▁India": 5339,
      "▁Sy": 5340,
      "lide": 5341,
      "▁hot": 5342,
      "aged": 5343,
      "▁itself": 5344,
      "cious": 5345,
      "rew": 5346,
      "▁tour": 5347,
      "▁fig": 5348,
      "NO": 5349,
      "▁tur": 5350,
      "header": 5351,
      "GE": 5352,
      "ска": 5353,
      "▁modern": 5354,
      "▁có": 5355,
      "▁element": 5356,
      "nable": 5357,
      "▁methods": 5358,
      "Dat": 5359,
      "Location": 5360,
      "▁industry": 5361,
      "▁Use": 5362,
      "Mon": 5363,
      "Var": 5364,
      "▁está": 5365,
      "aging": 5366,
      "▁calcul": 5367,
      "▁feet": 5368,
      "lif": 5369,
      "▁((": 5370,
      "Ext": 5371,
      "ById": 5372,
      "▁pou": 5373,
      "▁continue": 5374,
      "Now": 5375,
      "▁walk": 5376,
      "▁models": 5377,
      "wi": 5378,
      "src": 5379,
      "▁chall": 5380,
      "▁save": 5381,
      "<!--": 5382,
      "▁Ze": 5383,
      "Mode": 5384,
      "pic": 5385,
      "▁Commun": 5386,
      "ール": 5387,
      "▁demand": 5388,
      "▁nom": 5389,
      "rip": 5390,
      "▁achie": 5391,
      "▁inten": 5392,
      "Some": 5393,
      "dor": 5394,
      "ém": 5395,
      "▁wide": 5396,
      "▁PR": 5397,
      "▁player": 5398,
      "game": 5399,
      "tish": 5400,
      "rought": 5401,
      "▁Te": 5402,
      "▁图": 5403,
      "▁education": 5404,
      "\"/>": 5405,
      "ouncil": 5406,
      "▁Net": 5407,
      "pay": 5408,
      "います": 5409,
      "▁dress": 5410,
      "align": 5411,
      "lap": 5412,
      "apter": 5413,
      "▁esti": 5414,
      "rage": 5415,
      "▁ther": 5416,
      "ân": 5417,
      "titute": 5418,
      "Am": 5419,
      "iforn": 5420,
      "▁tree": 5421,
      "▁assist": 5422,
      "rate": 5423,
      "▁October": 5424,
      "▁sind": 5425,
      "▁это": 5426,
      "edit": 5427,
      "▁cookies": 5428,
      "ют": 5429,
      "BC": 5430,
      "▁Law": 5431,
      "▁rema": 5432,
      "equation": 5433,
      "▁remember": 5434,
      "till": 5435,
      "total": 5436,
      "▁ст": 5437,
      "▁reading": 5438,
      "▁Mac": 5439,
      "None": 5440,
      "▁dar": 5441,
      "▁Du": 5442,
      "urance": 5443,
      "्र": 5444,
      "rich": 5445,
      "▁Emp": 5446,
      "▁Hel": 5447,
      "lines": 5448,
      "▁structure": 5449,
      "send": 5450,
      "tn": 5451,
      "▁groups": 5452,
      "▁lines": 5453,
      "produ": 5454,
      "▁dead": 5455,
      "▁compan": 5456,
      "mine": 5457,
      "▁communic": 5458,
      "inst": 5459,
      "Dire": 5460,
      "Instance": 5461,
      "▁TR": 5462,
      "▁exact": 5463,
      "▁rem": 5464,
      "ruit": 5465,
      "▁wanted": 5466,
      "▁origin": 5467,
      "▁January": 5468,
      "▁copy": 5469,
      "▁behind": 5470,
      "▁Press": 5471,
      "▁compar": 5472,
      "vide": 5473,
      "▁са": 5474,
      "},\r": 5475,
      "▁likely": 5476,
      "sim": 5477,
      "▁Ha": 5478,
      "Rel": 5479,
      "▁quar": 5480,
      "▁sz": 5481,
      "lying": 5482,
      "▁created": 5483,
      "▁included": 5484,
      "▁Sam": 5485,
      "ín": 5486,
      "mazon": 5487,
      "▁collection": 5488,
      "▁occur": 5489,
      "images": 5490,
      "DR": 5491,
      "Down": 5492,
      "ので": 5493,
      "DS": 5494,
      "▁satis": 5495,
      "▁insp": 5496,
      "▁plu": 5497,
      "▁*\r": 5498,
      "▁click": 5499,
      "▁sex": 5500,
      "▁lost": 5501,
      "▁nous": 5502,
      "build": 5503,
      "▁reported": 5504,
      "▁از": 5505,
      "yo": 5506,
      "VER": 5507,
      "▁ر": 5508,
      "▁AR": 5509,
      "ifornia": 5510,
      "▁bud": 5511,
      "▁mention": 5512,
      "▁feed": 5513,
      "After": 5514,
      "▁atta": 5515,
      "▁November": 5516,
      "document": 5517,
      "COM": 5518,
      "................": 5519,
      "Order": 5520,
      "vention": 5521,
      "pid": 5522,
      "Di": 5523,
      "Max": 5524,
      "▁till": 5525,
      "token": 5526,
      "▁send": 5527,
      "▁initial": 5528,
      "▁brand": 5529,
      "sty": 5530,
      "▁Inc": 5531,
      "mited": 5532,
      "inen": 5533,
      "Update": 5534,
      "akan": 5535,
      "▁là": 5536,
      "Sto": 5537,
      "tau": 5538,
      "<<": 5539,
      "▁din": 5540,
      "remove": 5541,
      "exit": 5542,
      "▁longer": 5543,
      "Activity": 5544,
      "PH": 5545,
      "First": 5546,
      "sten": 5547,
      "▁takes": 5548,
      "cap": 5549,
      "▁Ret": 5550,
      "▁experien": 5551,
      "▁Play": 5552,
      "▁client": 5553,
      "▁International": 5554,
      "▁π": 5555,
      "▁prior": 5556,
      "java": 5557,
      "Ok": 5558,
      "Write": 5559,
      "matic": 5560,
      "md": 5561,
      "▁events": 5562,
      "▁First": 5563,
      "▁ow": 5564,
      "tura": 5565,
      "▁instance": 5566,
      "▁knowledge": 5567,
      "▁lay": 5568,
      "▁True": 5569,
      "▁glass": 5570,
      "▁East": 5571,
      "izer": 5572,
      "▁LIST": 5573,
      "▁rat": 5574,
      "▁да": 5575,
      "()\r": 5576,
      "BS": 5577,
      "▁immedi": 5578,
      "▁actual": 5579,
      "▁inside": 5580,
      "▁và": 5581,
      "rier": 5582,
      "star": 5583,
      "level": 5584,
      "react": 5585,
      "PC": 5586,
      "Introduction": 5587,
      "Sim": 5588,
      "clear": 5589,
      "gment": 5590,
      "▁couple": 5591,
      "txt": 5592,
      "hips": 5593,
      "comes": 5594,
      "Ho": 5595,
      "▁anyone": 5596,
      "rote": 5597,
      "▁write": 5598,
      "fficient": 5599,
      "itude": 5600,
      "▁pressure": 5601,
      "wan": 5602,
      "coming": 5603,
      "▁considered": 5604,
      "▁countries": 5605,
      "inary": 5606,
      "▁TV": 5607,
      "▁guide": 5608,
      "(&": 5609,
      "unic": 5610,
      "▁Street": 5611,
      "▁region": 5612,
      "▁official": 5613,
      "cribe": 5614,
      "proto": 5615,
      "▁isn": 5616,
      "gina": 5617,
      "raf": 5618,
      "▁cry": 5619,
      "▁Sen": 5620,
      "onom": 5621,
      "スト": 5622,
      "▁Est": 5623,
      "▁Work": 5624,
      "▁wie": 5625,
      "▁Our": 5626,
      "password": 5627,
      "▁ready": 5628,
      "oter": 5629,
      "ير": 5630,
      "▁conc": 5631,
      "▁tid": 5632,
      "itable": 5633,
      "acebook": 5634,
      "cienti": 5635,
      "▁cele": 5636,
      "ба": 5637,
      "▁III": 5638,
      "UI": 5639,
      "▁activity": 5640,
      "lé": 5641,
      "▁picture": 5642,
      "Url": 5643,
      "flow": 5644,
      "▁gave": 5645,
      "operator": 5646,
      "▁rela": 5647,
      "▁voor": 5648,
      "▁Name": 5649,
      "ird": 5650,
      "▁Please": 5651,
      "uy": 5652,
      "Pos": 5653,
      "alysis": 5654,
      "▁Good": 5655,
      "▁recommend": 5656,
      "▁NE": 5657,
      "▁COM": 5658,
      "リー": 5659,
      "sch": 5660,
      "cape": 5661,
      "▁hab": 5662,
      "▁prom": 5663,
      "mate": 5664,
      "▁Public": 5665,
      "esta": 5666,
      "Cor": 5667,
      "об": 5668,
      "▁pow": 5669,
      "itt": 5670,
      "qui": 5671,
      ".:": 5672,
      "css": 5673,
      "▁lie": 5674,
      "▁ka": 5675,
      "Doc": 5676,
      "▁np": 5677,
      "▁related": 5678,
      "ulta": 5679,
      "Width": 5680,
      "▁bank": 5681,
      "Null": 5682,
      "▁fan": 5683,
      "STR": 5684,
      "▁risk": 5685,
      "▁equi": 5686,
      "▁Ra": 5687,
      "▁approach": 5688,
      "inition": 5689,
      "▁\\%$": 5690,
      "▁rights": 5691,
      "Ent": 5692,
      "olutions": 5693,
      "▁fair": 5694,
      "▁Sco": 5695,
      "PT": 5696,
      "▁wal": 5697,
      "▁Here": 5698,
      "Format": 5699,
      "▁vin": 5700,
      "▁effects": 5701,
      "ств": 5702,
      "enda": 5703,
      "▁Research": 5704,
      "▁node": 5705,
      "▁ay": 5706,
      "▁Table": 5707,
      "▁Model": 5708,
      "det": 5709,
      "▁Associ": 5710,
      "▁î": 5711,
      "Stu": 5712,
      "▁dom": 5713,
      "▁Center": 5714,
      "▁bis": 5715,
      "FO": 5716,
      "Stack": 5717,
      "▁<=": 5718,
      "llen": 5719,
      "server": 5720,
      "▁height": 5721,
      "▁dru": 5722,
      "endant": 5723,
      "amma": 5724,
      ")=": 5725,
      "ке": 5726,
      "▁posted": 5727,
      "▁activities": 5728,
      "reci": 5729,
      "▁former": 5730,
      "attr": 5731,
      "Mapp": 5732,
      "sen": 5733,
      "▁cand": 5734,
      "▁kep": 5735,
      "▁potential": 5736,
      "▁não": 5737,
      "гра": 5738,
      "Any": 5739,
      "pin": 5740,
      "uh": 5741,
      "▁ways": 5742,
      "ology": 5743,
      "▁ball": 5744,
      "mag": 5745,
      "▁>>": 5746,
      "pers": 5747,
      "▁regular": 5748,
      "aving": 5749,
      "$,": 5750,
      "Sum": 5751,
      "teen": 5752,
      "ulations": 5753,
      "▁Educ": 5754,
      "lec": 5755,
      "lands": 5756,
      "▁pm": 5757,
      "uestion": 5758,
      "▁Ap": 5759,
      "▁baby": 5760,
      "▁proced": 5761,
      "▁resid": 5762,
      "”,": 5763,
      "▁morning": 5764,
      "▁pul": 5765,
      "▁complex": 5766,
      "asons": 5767,
      "▁Lea": 5768,
      "▁گ": 5769,
      "Del": 5770,
      "▁themselves": 5771,
      "▁opin": 5772,
      "prime": 5773,
      "▁figure": 5774,
      "dr": 5775,
      "isse": 5776,
      "▁Prof": 5777,
      "▁ko": 5778,
      "▁Form": 5779,
      "▁boy": 5780,
      "های": 5781,
      "▁Phys": 5782,
      "▁America": 5783,
      "sec": 5784,
      "وا": 5785,
      "▁κ": 5786,
      "click": 5787,
      "▁ро": 5788,
      "Dep": 5789,
      "▁prop": 5790,
      "▁info": 5791,
      "いた": 5792,
      "▁ideas": 5793,
      "▁Water": 5794,
      "eq": 5795,
      "▁possib": 5796,
      "ILL": 5797,
      "▁shirt": 5798,
      "FOR": 5799,
      "▁Lab": 5800,
      "\\_": 5801,
      "▁streng": 5802,
      "rigin": 5803,
      "▁yourself": 5804,
      "icon": 5805,
      "sql": 5806,
      "あり": 5807,
      "ullable": 5808,
      "▁temperature": 5809,
      "notation": 5810,
      "QL": 5811,
      "ERE": 5812,
      "hood": 5813,
      "nde": 5814,
      "Handler": 5815,
      "tify": 5816,
      "photo": 5817,
      "constru": 5818,
      "ops": 5819,
      "▁evidence": 5820,
      "▁km": 5821,
      "▁remain": 5822,
      "▁Ant": 5823,
      "▁December": 5824,
      "Pass": 5825,
      "Core": 5826,
      "▁hi": 5827,
      "▁explo": 5828,
      "river": 5829,
      "▁difference": 5830,
      "▁photos": 5831,
      "posi": 5832,
      "▁tar": 5833,
      "▁priv": 5834,
      "IAL": 5835,
      "自己": 5836,
      "circ": 5837,
      "▁dari": 5838,
      "mazing": 5839,
      "▁Loc": 5840,
      "▁situation": 5841,
      "▁father": 5842,
      "▁>=": 5843,
      "nis": 5844,
      "▁Rea": 5845,
      "▁است": 5846,
      "ederal": 5847,
      "parti": 5848,
      "▁poss": 5849,
      "mor": 5850,
      "▁EN": 5851,
      "▁therefore": 5852,
      "▁transfer": 5853,
      "lah": 5854,
      "atic": 5855,
      "Step": 5856,
      "▁cir": 5857,
      "=$": 5858,
      "alog": 5859,
      "mel": 5860,
      "▁Ca": 5861,
      "SA": 5862,
      "▁pag": 5863,
      "ialog": 5864,
      "▁И": 5865,
      "sert": 5866,
      "iller": 5867,
      "pag": 5868,
      "▁vel": 5869,
      "throw": 5870,
      "nic": 5871,
      ".*": 5872,
      "Port": 5873,
      "rab": 5874,
      "▁kil": 5875,
      "▁popular": 5876,
      "▁police": 5877,
      "lem": 5878,
      "▁bran": 5879,
      "framework": 5880,
      "▁Are": 5881,
      "OG": 5882,
      "enty": 5883,
      "▁heard": 5884,
      "iable": 5885,
      "▁tag": 5886,
      "erve": 5887,
      "▁Cam": 5888,
      "estern": 5889,
      "ña": 5890,
      "▁σ": 5891,
      "▁China": 5892,
      "▁club": 5893,
      "outer": 5894,
      "▁administ": 5895,
      "▁]": 5896,
      "▁Group": 5897,
      "Mark": 5898,
      "▁villa": 5899,
      "▁fight": 5900,
      "override": 5901,
      "▁levels": 5902,
      "CD": 5903,
      "aron": 5904,
      "hase": 5905,
      "Our": 5906,
      "▁PM": 5907,
      "aya": 5908,
      "fé": 5909,
      "cked": 5910,
      "offe": 5911,
      "▁window": 5912,
      "▁student": 5913,
      "ition": 5914,
      "▁hidden": 5915,
      "service": 5916,
      "([": 5917,
      "▁instead": 5918,
      "▁relig": 5919,
      "▁format": 5920,
      "▁Mad": 5921,
      "cellent": 5922,
      "POST": 5923,
      "EE": 5924,
      "▁Pen": 5925,
      "pub": 5926,
      "▁Pal": 5927,
      "▁Japan": 5928,
      "▁dog": 5929,
      "▁camp": 5930,
      "ptr": 5931,
      "nb": 5932,
      "atan": 5933,
      "▁sale": 5934,
      "options": 5935,
      "▁Art": 5936,
      "лен": 5937,
      "Uni": 5938,
      "hol": 5939,
      "inted": 5940,
      "}{\\": 5941,
      "▁additional": 5942,
      "▁behavi": 5943,
      "address": 5944,
      "▁Ac": 5945,
      "bil": 5946,
      "Tab": 5947,
      "angan": 5948,
      "▁Port": 5949,
      "▁competi": 5950,
      "▁birth": 5951,
      "▁written": 5952,
      "▁ç": 5953,
      "dt": 5954,
      "▁£": 5955,
      "References": 5956,
      "▁Mod": 5957,
      "Please": 5958,
      "region": 5959,
      "gue": 5960,
      "▁meeting": 5961,
      "▁Del": 5962,
      "bour": 5963,
      "imer": 5964,
      "▁ш": 5965,
      "▁description": 5966,
      "▁fail": 5967,
      "▁numbers": 5968,
      "▁{}": 5969,
      "IES": 5970,
      "▁бо": 5971,
      "Just": 5972,
      "▁Review": 5973,
      "▁band": 5974,
      "iser": 5975,
      "▁weeks": 5976,
      "rant": 5977,
      "▁Bel": 5978,
      "▁ו": 5979,
      "▁motor": 5980,
      "▁became": 5981,
      "▁kids": 5982,
      "estroy": 5983,
      "aman": 5984,
      "▁safe": 5985,
      "ika": 5986,
      "▁paint": 5987,
      "▁difficult": 5988,
      "▁graph": 5989,
      "▁shot": 5990,
      "▁Der": 5991,
      "eno": 5992,
      "ums": 5993,
      "nolog": 5994,
      "▁画像": 5995,
      "google": 5996,
      "haps": 5997,
      "▁metal": 5998,
      "▁cells": 5999,
      "command": 6000,
      "jpg": 6001,
      "▁Long": 6002,
      "limin": 6003,
      "▁progra": 6004,
      "▁cru": 6005,
      "Where": 6006,
      "▁Sk": 6007,
      "crip": 6008,
      "rome": 6009,
      "****************": 6010,
      "▁network": 6011,
      "▁jour": 6012,
      "▁Wash": 6013,
      "▁decor": 6014,
      "▁std": 6015,
      "▁practice": 6016,
      "▁href": 6017,
      "abled": 6018,
      "▁wat": 6019,
      "~~": 6020,
      "▁President": 6021,
      "▁patients": 6022,
      "velopment": 6023,
      "BA": 6024,
      "▁cr": 6025,
      "▁vehic": 6026,
      "Address": 6027,
      "よう": 6028,
      "▁nur": 6029,
      "▁cá": 6030,
      "▁typ": 6031,
      "▁है": 6032,
      "▁Auto": 6033,
      "Cell": 6034,
      "▁gro": 6035,
      "'.": 6036,
      "▁capital": 6037,
      "▁electric": 6038,
      "inten": 6039,
      "eller": 6040,
      "GET": 6041,
      "▁uns": 6042,
      "cie": 6043,
      "▁learning": 6044,
      "▁focus": 6045,
      "▁David": 6046,
      "Open": 6047,
      "parse": 6048,
      "Pe": 6049,
      "▁dry": 6050,
      "▁tout": 6051,
      "▁ik": 6052,
      "wers": 6053,
      "▁$(": 6054,
      "▁gain": 6055,
      "され": 6056,
      "asks": 6057,
      "▁$-": 6058,
      "▁pap": 6059,
      "▁ax": 6060,
      "lee": 6061,
      "osa": 6062,
      "▁era": 6063,
      "▁device": 6064,
      "vy": 6065,
      "▁active": 6066,
      "▁fl": 6067,
      "ashion": 6068,
      "▁bul": 6069,
      "▁ON": 6070,
      "▁tran": 6071,
      "▁host": 6072,
      "▁α": 6073,
      "▁Por": 6074,
      "▁distance": 6075,
      "oni": 6076,
      "▁recent": 6077,
      "▁exer": 6078,
      "▁под": 6079,
      "▁slow": 6080,
      "▁France": 6081,
      "▁trade": 6082,
      "undo": 6083,
      "iting": 6084,
      "zel": 6085,
      "▁button": 6086,
      "ivo": 6087,
      "product": 6088,
      "ég": 6089,
      "▁royal": 6090,
      "ename": 6091,
      "▁California": 6092,
      "buf": 6093,
      "column": 6094,
      "cussion": 6095,
      "ustomer": 6096,
      "▁mad": 6097,
      "▁Ear": 6098,
      "efore": 6099,
      "ANT": 6100,
      "III": 6101,
      "▁effic": 6102,
      "ristian": 6103,
      "▁wiki": 6104,
      "▁acqu": 6105,
      "rup": 6106,
      "RES": 6107,
      "ды": 6108,
      "▁drive": 6109,
      "▁James": 6110,
      "house": 6111,
      "ICE": 6112,
      "▁OR": 6113,
      "Ins": 6114,
      "ecute": 6115,
      "uan": 6116,
      "cout": 6117,
      "ership": 6118,
      "▁Dem": 6119,
      "ний": 6120,
      "▁organiz": 6121,
      "Sal": 6122,
      "▁?>": 6123,
      "aten": 6124,
      "ecause": 6125,
      "▁cro": 6126,
      "entity": 6127,
      "▁goes": 6128,
      "▁Shi": 6129,
      "Valid": 6130,
      "▁Sum": 6131,
      "ades": 6132,
      "▁town": 6133,
      "pair": 6134,
      "▁AL": 6135,
      "▁Over": 6136,
      "▁attention": 6137,
      "▁fol": 6138,
      "▁letter": 6139,
      "Output": 6140,
      "▁sco": 6141,
      "▁books": 6142,
      "▁altern": 6143,
      "nu": 6144,
      "plan": 6145,
      "ото": 6146,
      "widget": 6147,
      "holder": 6148,
      "ensity": 6149,
      "nical": 6150,
      "Je": 6151,
      "▁wife": 6152,
      "Sta": 6153,
      "▁sand": 6154,
      "▁playing": 6155,
      "▁gives": 6156,
      "▁ef": 6157,
      "THE": 6158,
      "aking": 6159,
      "▁scre": 6160,
      "什么": 6161,
      "▁ones": 6162,
      "apat": 6163,
      "Rem": 6164,
      "▁Number": 6165,
      "су": 6166,
      "▁MA": 6167,
      "Material": 6168,
      "▁evalu": 6169,
      "udo": 6170,
      "subsubsection": 6171,
      "CS": 6172,
      "▁luck": 6173,
      "ется": 6174,
      "▁Austral": 6175,
      "###": 6176,
      "▁för": 6177,
      "▁technology": 6178,
      "Well": 6179,
      "enge": 6180,
      "▁fat": 6181,
      "Child": 6182,
      "▁wird": 6183,
      "EO": 6184,
      "▁mechan": 6185,
      "▁summer": 6186,
      "▁purpose": 6187,
      "anya": 6188,
      "eden": 6189,
      "cr": 6190,
      "▁international": 6191,
      "Off": 6192,
      "sem": 6193,
      "FT": 6194,
      "▁Ent": 6195,
      "Best": 6196,
      "▁Que": 6197,
      "——": 6198,
      "▁wish": 6199,
      "▁numer": 6200,
      "▁Ill": 6201,
      "▁species": 6202,
      "▁reference": 6203,
      "▁purcha": 6204,
      "▁materials": 6205,
      "▁security": 6206,
      "▁respect": 6207,
      "▁hotel": 6208,
      "arma": 6209,
      "▁Company": 6210,
      "▁users": 6211,
      "ück": 6212,
      "water": 6213,
      "bag": 6214,
      "▁Type": 6215,
      "▁Г": 6216,
      "URL": 6217,
      "▁statement": 6218,
      "bri": 6219,
      "▁felt": 6220,
      "▁constant": 6221,
      "▁positive": 6222,
      "▁plas": 6223,
      "xx": 6224,
      "▁votre": 6225,
      "▁Bank": 6226,
      "Length": 6227,
      "PM": 6228,
      "ooth": 6229,
      "▁å": 6230,
      "▁restaur": 6231,
      "▁cab": 6232,
      "▁built": 6233,
      "nik": 6234,
      "▁Pra": 6235,
      "tively": 6236,
      "▁Log": 6237,
      "▁Google": 6238,
      "▁unique": 6239,
      "HO": 6240,
      "▁choice": 6241,
      "Game": 6242,
      "▁respec": 6243,
      "ROM": 6244,
      "▁AT": 6245,
      "▁states": 6246,
      "▁finally": 6247,
      "いて": 6248,
      "▁stream": 6249,
      "▁Lord": 6250,
      "▁Life": 6251,
      "▁Program": 6252,
      "▁random": 6253,
      "▁wir": 6254,
      "▁god": 6255,
      "▁charge": 6256,
      "Dele": 6257,
      "Email": 6258,
      "▁Los": 6259,
      "venue": 6260,
      "ſt": 6261,
      "Op": 6262,
      "▁'./": 6263,
      "вер": 6264,
      "aling": 6265,
      "gency": 6266,
      "lite": 6267,
      "▁feature": 6268,
      "▁political": 6269,
      "figure": 6270,
      "▁Tri": 6271,
      "▁:)": 6272,
      "Other": 6273,
      "home": 6274,
      "▁inform": 6275,
      "▁إ": 6276,
      "ری": 6277,
      ")]": 6278,
      "▁attack": 6279,
      "▁population": 6280,
      "▁looked": 6281,
      "FL": 6282,
      "жно": 6283,
      "▁sleep": 6284,
      "ller": 6285,
      "▁bur": 6286,
      "▁Yes": 6287,
      "▁Cent": 6288,
      "По": 6289,
      "tie": 6290,
      "ischen": 6291,
      "bles": 6292,
      "▁brought": 6293,
      "________________": 6294,
      "▁institu": 6295,
      "dius": 6296,
      "▁Ve": 6297,
      "▁را": 6298,
      "riteria": 6299,
      "ें": 6300,
      "▁Tem": 6301,
      "▁logo": 6302,
      "▁adv": 6303,
      "ак": 6304,
      "▁whose": 6305,
      "▁src": 6306,
      "▁Design": 6307,
      "▁Rich": 6308,
      "known": 6309,
      "né": 6310,
      "oul": 6311,
      "▁eye": 6312,
      "login": 6313,
      "uda": 6314,
      "Param": 6315,
      "▁fond": 6316,
      "Ali": 6317,
      "نا": 6318,
      "▁thus": 6319,
      "ARD": 6320,
      "фи": 6321,
      "anz": 6322,
      "apt": 6323,
      "PER": 6324,
      "▁stage": 6325,
      "▁μ": 6326,
      "itch": 6327,
      "▁analy": 6328,
      "▁args": 6329,
      "Frame": 6330,
      "▁costs": 6331,
      "▁ö": 6332,
      "mg": 6333,
      "late": 6334,
      "global": 6335,
      "▁resources": 6336,
      "BR": 6337,
      "▁ста": 6338,
      "vest": 6339,
      "تر": 6340,
      "olar": 6341,
      "▁resist": 6342,
      "▁began": 6343,
      "Ter": 6344,
      "uede": 6345,
      "▁parte": 6346,
      "PORT": 6347,
      "▁${": 6348,
      "▁IT": 6349,
      "▁amp": 6350,
      "▁manufact": 6351,
      "ター": 6352,
      "Next": 6353,
      "Ma": 6354,
      "iente": 6355,
      "▁Bre": 6356,
      "non": 6357,
      "にな": 6358,
      "oring": 6359,
      "ías": 6360,
      "kom": 6361,
      "BER": 6362,
      "▁February": 6363,
      "▁rules": 6364,
      "とい": 6365,
      "ciones": 6366,
      "▁ли": 6367,
      "bur": 6368,
      "▁Paul": 6369,
      "▁hour": 6370,
      "▁Report": 6371,
      "▁Just": 6372,
      "mann": 6373,
      "▁dur": 6374,
      "xi": 6375,
      "▁Open": 6376,
      "Main": 6377,
      "▁reach": 6378,
      "▁labor": 6379,
      "GL": 6380,
      "loss": 6381,
      "swing": 6382,
      "▁carry": 6383,
      "idos": 6384,
      "▁Fig": 6385,
      "αι": 6386,
      "margin": 6387,
      "ango": 6388,
      "pat": 6389,
      "▁NO": 6390,
      "props": 6391,
      "▁\\&": 6392,
      "pet": 6393,
      "▁Free": 6394,
      "filter": 6395,
      "words": 6396,
      "▁follows": 6397,
      "tification": 6398,
      "▁си": 6399,
      "$_": 6400,
      "Phone": 6401,
      "▁thanks": 6402,
      "▁digital": 6403,
      "asures": 6404,
      "▁fab": 6405,
      "▁bound": 6406,
      "Lin": 6407,
      "нов": 6408,
      "▁Mart": 6409,
      "▁selected": 6410,
      "▁Oh": 6411,
      "Thread": 6412,
      "mended": 6413,
      "ार": 6414,
      "▁announ": 6415,
      "▁integr": 6416,
      "▁サ": 6417,
      "▁impact": 6418,
      "aro": 6419,
      "erved": 6420,
      "▁Ba": 6421,
      "▁fresh": 6422,
      "▁tried": 6423,
      "▁parents": 6424,
      "tique": 6425,
      "oose": 6426,
      "▁receive": 6427,
      "illing": 6428,
      "▁Met": 6429,
      "perties": 6430,
      "▁piece": 6431,
      "▁hyd": 6432,
      "lling": 6433,
      "ijn": 6434,
      "▁segu": 6435,
      "Show": 6436,
      "▁touch": 6437,
      "▁studies": 6438,
      "▁companies": 6439,
      "▁~": 6440,
      "▁Method": 6441,
      "▁Hand": 6442,
      "Change": 6443,
      "▁sty": 6444,
      "Default": 6445,
      "minal": 6446,
      "イル": 6447,
      "description": 6448,
      "▁serious": 6449,
      "ườ": 6450,
      "actions": 6451,
      "burg": 6452,
      "▁sample": 6453,
      "▁commer": 6454,
      "aled": 6455,
      "▁Part": 6456,
      "Total": 6457,
      "▁White": 6458,
      "Forms": 6459,
      "▁premi": 6460,
      "▁LA": 6461,
      "Card": 6462,
      "▁techni": 6463,
      "▁Other": 6464,
      "tmp": 6465,
      "iff": 6466,
      "multi": 6467,
      "part": 6468,
      "▁все": 6469,
      "Panel": 6470,
      "alla": 6471,
      "meta": 6472,
      "▁Year": 6473,
      "patch": 6474,
      "▁choose": 6475,
      "▁chapter": 6476,
      "bet": 6477,
      "▁Jes": 6478,
      "▁machine": 6479,
      "▁icon": 6480,
      "▁Indian": 6481,
      "kg": 6482,
      "▁prepar": 6483,
      "dict": 6484,
      "alo": 6485,
      "ções": 6486,
      "yan": 6487,
      "lief": 6488,
      "ategy": 6489,
      "▁quanti": 6490,
      "baj": 6491,
      "sq": 6492,
      "anges": 6493,
      "▁guys": 6494,
      "vez": 6495,
      "ERR": 6496,
      "ál": 6497,
      "▁wy": 6498,
      "aa": 6499,
      "ugh": 6500,
      "real": 6501,
      "▁accept": 6502,
      "olog": 6503,
      "▁remove": 6504,
      "anne": 6505,
      "▁Em": 6506,
      "astic": 6507,
      "▁saying": 6508,
      "aren": 6509,
      "▁introdu": 6510,
      "▁sau": 6511,
      "menu": 6512,
      "pected": 6513,
      "▁safety": 6514,
      "tains": 6515,
      "mbda": 6516,
      "▁micro": 6517,
      "▁AD": 6518,
      "Pack": 6519,
      "▁constru": 6520,
      "▁Fore": 6521,
      "unday": 6522,
      "▁dream": 6523,
      "▁emer": 6524,
      "▁EX": 6525,
      "▁Na": 6526,
      "ooper": 6527,
      "▁poor": 6528,
      "estin": 6529,
      "▁fix": 6530,
      "▁todo": 6531,
      "бе": 6532,
      "▁Vir": 6533,
      "stal": 6534,
      "▁bool": 6535,
      "▁ger": 6536,
      "▁resource": 6537,
      "▁Rem": 6538,
      "▁Fre": 6539,
      "CP": 6540,
      "Ra": 6541,
      "pla": 6542,
      "(_": 6543,
      "▁NOT": 6544,
      "ại": 6545,
      "uster": 6546,
      "▁described": 6547,
      "▁Men": 6548,
      "ees": 6549,
      "success": 6550,
      "continue": 6551,
      "▁College": 6552,
      "▁Great": 6553,
      ".....": 6554,
      "▁obj": 6555,
      "amo": 6556,
      "▁ص": 6557,
      "▁pes": 6558,
      "▁wrote": 6559,
      "lements": 6560,
      "▁greater": 6561,
      "undle": 6562,
      "▁alone": 6563,
      "▁ven": 6564,
      "iet": 6565,
      "▁includes": 6566,
      "▁End": 6567,
      "▁Main": 6568,
      "▁Board": 6569,
      "was": 6570,
      "Who": 6571,
      "▁provides": 6572,
      "▁zur": 6573,
      "▁simply": 6574,
      "allery": 6575,
      "based": 6576,
      "ctors": 6577,
      "▁economic": 6578,
      "لي": 6579,
      "Conclusion": 6580,
      "▁direction": 6581,
      "▁č": 6582,
      ".\r": 6583,
      "▁construction": 6584,
      "process": 6585,
      "この": 6586,
      "CM": 6587,
      "▁train": 6588,
      "▁handle": 6589,
      "ancy": 6590,
      "▁Canada": 6591,
      "▁Jack": 6592,
      "vector": 6593,
      "IX": 6594,
      "ungs": 6595,
      ")\\": 6596,
      "▁Fil": 6597,
      "Case": 6598,
      "▁py": 6599,
      "\"))": 6600,
      "olve": 6601,
      "eles": 6602,
      "ppy": 6603,
      "Long": 6604,
      "env": 6605,
      "ously": 6606,
      "▁Rel": 6607,
      "▁knew": 6608,
      "foto": 6609,
      "dist": 6610,
      "▁ton": 6611,
      "Tem": 6612,
      "▁mir": 6613,
      "pect": 6614,
      "Dialog": 6615,
      "▁select": 6616,
      "initely": 6617,
      "▁sé": 6618,
      "▁voc": 6619,
      "▁volume": 6620,
      "Repository": 6621,
      "ري": 6622,
      "▁х": 6623,
      "▁бу": 6624,
      "▁indep": 6625,
      "▁ز": 6626,
      "ất": 6627,
      "▁ped": 6628,
      "▁increased": 6629,
      "▁files": 6630,
      "▁Lou": 6631,
      "▁Government": 6632,
      "▁repres": 6633,
      "▁Land": 6634,
      "▁elements": 6635,
      "ング": 6636,
      "он": 6637,
      "▁util": 6638,
      "AK": 6639,
      "▁players": 6640,
      "athered": 6641,
      "offee": 6642,
      "▁towards": 6643,
      "▁pin": 6644,
      "▁easily": 6645,
      "ril": 6646,
      "WS": 6647,
      "▁Bet": 6648,
      "▁Power": 6649,
      "▁customer": 6650,
      "tir": 6651,
      "▁apply": 6652,
      "▁connection": 6653,
      "ới": 6654,
      "ình": 6655,
      "▁Op": 6656,
      "paper": 6657,
      "▁Joh": 6658,
      "session": 6659,
      "fen": 6660,
      "Grid": 6661,
      "oting": 6662,
      "ibli": 6663,
      "▁involved": 6664,
      "Ag": 6665,
      "▁Cong": 6666,
      "hor": 6667,
      "▁stuff": 6668,
      "▁conven": 6669,
      "Num": 6670,
      "springframework": 6671,
      "▁lives": 6672,
      "▁directly": 6673,
      "▁Stand": 6674,
      "▁Mu": 6675,
      "▁transport": 6676,
      "priate": 6677,
      "▁bla": 6678,
      "eces": 6679,
      "▁jak": 6680,
      "▁concentr": 6681,
      "▁equipment": 6682,
      "▁earth": 6683,
      "▁tab": 6684,
      "Oper": 6685,
      "▁Af": 6686,
      "▁się": 6687,
      "tung": 6688,
      "▁sequ": 6689,
      "▁Gar": 6690,
      "▁durch": 6691,
      "ugar": 6692,
      "player": 6693,
      "ably": 6694,
      "être": 6695,
      "layout": 6696,
      "GO": 6697,
      "▁Code": 6698,
      ":}": 6699,
      "▁prefer": 6700,
      "▁River": 6701,
      "hist": 6702,
      "▁pero": 6703,
      "uma": 6704,
      "Price": 6705,
      "▁writing": 6706,
      ",'": 6707,
      "▁に": 6708,
      "store": 6709,
      "bus": 6710,
      "Body": 6711,
      "SO": 6712,
      "▁eu": 6713,
      "ston": 6714,
      "aba": 6715,
      "require": 6716,
      "person": 6717,
      "ень": 6718,
      "▁heat": 6719,
      "sey": 6720,
      "Die": 6721,
      "\",\r": 6722,
      "▁nue": 6723,
      "▁Green": 6724,
      "▁expand": 6725,
      "John": 6726,
      "ambién": 6727,
      "▁sort": 6728,
      "Last": 6729,
      "▁Bas": 6730,
      "agnos": 6731,
      "ulty": 6732,
      "▁multiple": 6733,
      "▁tot": 6734,
      "night": 6735,
      "Sign": 6736,
      "BN": 6737,
      "▁Tom": 6738,
      "▁Id": 6739,
      "▁Arch": 6740,
      "▁mess": 6741,
      "▁¿": 6742,
      "Drawing": 6743,
      "}=\\": 6744,
      "▁Organ": 6745,
      "▁Phi": 6746,
      "taining": 6747,
      "▁medic": 6748,
      "ース": 6749,
      "Hey": 6750,
      "या": 6751,
      "Buffer": 6752,
      "ров": 6753,
      "Mr": 6754,
      "AA": 6755,
      "\"),": 6756,
      "▁Book": 6757,
      "zes": 6758,
      "ulated": 6759,
      "▁demon": 6760,
      "idade": 6761,
      "▁ве": 6762,
      "itect": 6763,
      "auth": 6764,
      "ische": 6765,
      "ASE": 6766,
      "▁download": 6767,
      "rence": 6768,
      "▁Road": 6769,
      "▁pré": 6770,
      "▁Color": 6771,
      "▁json": 6772,
      "vos": 6773,
      "▁basis": 6774,
      "▁Well": 6775,
      "▁как": 6776,
      "▁के": 6777,
      "make": 6778,
      "aran": 6779,
      "▁че": 6780,
      "enses": 6781,
      "Factory": 6782,
      "▁bey": 6783,
      "▁floor": 6784,
      "▁wind": 6785,
      "kk": 6786,
      "▁turned": 6787,
      "IVE": 6788,
      "▁goal": 6789,
      "▁professional": 6790,
      "▁operation": 6791,
      "▁solid": 6792,
      "▁Also": 6793,
      "▁Engine": 6794,
      "Non": 6795,
      "▁einer": 6796,
      "force": 6797,
      "Dr": 6798,
      "prise": 6799,
      "▁worked": 6800,
      "وم": 6801,
      "ции": 6802,
      "▁gets": 6803,
      "▁Church": 6804,
      "▁Wal": 6805,
      "Na": 6806,
      "▁isol": 6807,
      "%%%%": 6808,
      "▁Science": 6809,
      "▁Array": 6810,
      "▁modif": 6811,
      "undred": 6812,
      "Container": 6813,
      "▁Rob": 6814,
      "▁software": 6815,
      "▁mut": 6816,
      "▁sac": 6817,
      "Right": 6818,
      "frica": 6819,
      "uns": 6820,
      "esch": 6821,
      "▁Why": 6822,
      "Author": 6823,
      "▁deliver": 6824,
      "esome": 6825,
      "acters": 6826,
      "ство": 6827,
      "▁Cat": 6828,
      "Sche": 6829,
      "graf": 6830,
      "Local": 6831,
      "▁Miss": 6832,
      "▁zum": 6833,
      "Empty": 6834,
      "▁Top": 6835,
      "▁myself": 6836,
      "▁bottom": 6837,
      "▁paid": 6838,
      "▁Person": 6839,
      "▁Div": 6840,
      "▁pá": 6841,
      "liche": 6842,
      "▁relationship": 6843,
      "rot": 6844,
      "没有": 6845,
      "Current": 6846,
      "aka": 6847,
      "▁бе": 6848,
      "inese": 6849,
      "▁pel": 6850,
      "android": 6851,
      "▁correspond": 6852,
      "▁places": 6853,
      "Command": 6854,
      "▁Pol": 6855,
      "про": 6856,
      "сы": 6857,
      "▁avoid": 6858,
      "▁basic": 6859,
      "split": 6860,
      "▁seven": 6861,
      "usion": 6862,
      "▁Gold": 6863,
      "too": 6864,
      "▁cette": 6865,
      "その": 6866,
      "▁Tur": 6867,
      "enne": 6868,
      "▁designed": 6869,
      "Il": 6870,
      "▁equal": 6871,
      "kar": 6872,
      "ivil": 6873,
      "▁inj": 6874,
      "▁computer": 6875,
      "▁vic": 6876,
      "▁lang": 6877,
      "▁forma": 6878,
      "▁England": 6879,
      "▁root": 6880,
      "alls": 6881,
      "Types": 6882,
      "▁pattern": 6883,
      "▁memory": 6884,
      "background": 6885,
      "▁Bal": 6886,
      "▁expression": 6887,
      "▁Any": 6888,
      "▁rom": 6889,
      "では": 6890,
      "▁Rev": 6891,
      "Fin": 6892,
      "ror": 6893,
      "▁aqu": 6894,
      "▁financial": 6895,
      "SD": 6896,
      "▁illustration": 6897,
      "▁acid": 6898,
      ":\"": 6899,
      "▁throughout": 6900,
      "▁menu": 6901,
      "▁esp": 6902,
      "bas": 6903,
      "quid": 6904,
      "tivity": 6905,
      "▁Jah": 6906,
      "rad": 6907,
      "▁defined": 6908,
      "labor": 6909,
      "▁medical": 6910,
      "▁task": 6911,
      "▁consum": 6912,
      "Json": 6913,
      "▁spirit": 6914,
      "▁physical": 6915,
      "▁viol": 6916,
      "ца": 6917,
      "▁Commission": 6918,
      "▁protection": 6919,
      "▁shop": 6920,
      "dent": 6921,
      "Your": 6922,
      "Integer": 6923,
      "ioni": 6924,
      "▁File": 6925,
      "Mer": 6926,
      "▁credit": 6927,
      "Options": 6928,
      "▁limited": 6929,
      "▁dia": 6930,
      "▁flex": 6931,
      "menta": 6932,
      "▁rule": 6933,
      "▁server": 6934,
      "izing": 6935,
      "ONE": 6936,
      "onday": 6937,
      "(!": 6938,
      "}-": 6939,
      "лы": 6940,
      "endi": 6941,
      "rain": 6942,
      "▁absolute": 6943,
      "black": 6944,
      "▁properties": 6945,
      "Args": 6946,
      "▁sometimes": 6947,
      "WE": 6948,
      "beta": 6949,
      "▁củ": 6950,
      "Nav": 6951,
      "▁offers": 6952,
      "annotation": 6953,
      "Serial": 6954,
      "vé": 6955,
      "Also": 6956,
      "\";\r": 6957,
      "▁Check": 6958,
      "▁scale": 6959,
      "Block": 6960,
      "cro": 6961,
      "rung": 6962,
      "▁pun": 6963,
      "▁quel": 6964,
      "▁الأ": 6965,
      "лі": 6966,
      "Li": 6967,
      "PICTOGRAM": 6968,
      "eared": 6969,
      "▁float": 6970,
      "uj": 6971,
      "eler": 6972,
      "border": 6973,
      "▁Page": 6974,
      "▁tit": 6975,
      "▁Will": 6976,
      "▁allowed": 6977,
      "▁Game": 6978,
      "isk": 6979,
      "▁Back": 6980,
      "▁culture": 6981,
      "Level": 6982,
      "ady": 6983,
      "fill": 6984,
      "▁flat": 6985,
      "dule": 6986,
      "▁French": 6987,
      "HA": 6988,
      "▁ol": 6989,
      "▁developed": 6990,
      "▁played": 6991,
      "Collections": 6992,
      "しい": 6993,
      "ULT": 6994,
      "urer": 6995,
      "▁meaning": 6996,
      "tives": 6997,
      "ODE": 6998,
      "essor": 6999,
      "Height": 7000,
      "▁dir": 7001,
      "▁attra": 7002,
      "endar": 7003,
      "▁Tod": 7004,
      "▁condu": 7005,
      "▁Office": 7006,
      "ctx": 7007,
      "clo": 7008,
      "pisode": 7009,
      "mode": 7010,
      "▁Bay": 7011,
      "▁Ev": 7012,
      "nak": 7013,
      "lı": 7014,
      "▁UK": 7015,
      "▁gradu": 7016,
      "▁effective": 7017,
      "▁published": 7018,
      "aca": 7019,
      "▁Two": 7020,
      "isch": 7021,
      "Dan": 7022,
      "▁located": 7023,
      "brary": 7024,
      "Search": 7025,
      "(-": 7026,
      "▁objec": 7027,
      "ributes": 7028,
      "▁track": 7029,
      "edding": 7030,
      "мы": 7031,
      "door": 7032,
      "▁cold": 7033,
      "▁obtained": 7034,
      "▁legal": 7035,
      "ORD": 7036,
      "▁cop": 7037,
      "▁Mil": 7038,
      "▁spot": 7039,
      "▁Pet": 7040,
      "▁Lin": 7041,
      "▁damage": 7042,
      "___": 7043,
      "control": 7044,
      "ться": 7045,
      "DF": 7046,
      "ное": 7047,
      "rar": 7048,
      "▁Washington": 7049,
      "▁Council": 7050,
      "▁mig": 7051,
      "▁changed": 7052,
      "▁ty": 7053,
      "ragment": 7054,
      "▁express": 7055,
      "Use": 7056,
      "▁ont": 7057,
      "lä": 7058,
      "▁associated": 7059,
      "使用": 7060,
      "▁voice": 7061,
      "▁CA": 7062,
      "tein": 7063,
      "iano": 7064,
      "got": 7065,
      "onna": 7066,
      "lls": 7067,
      "▁chance": 7068,
      "rá": 7069,
      "▁ε": 7070,
      "Task": 7071,
      "▁ва": 7072,
      "▁của": 7073,
      "▁daily": 7074,
      "lambda": 7075,
      "▁occas": 7076,
      "▁comme": 7077,
      "我们": 7078,
      "chaft": 7079,
      "copy": 7080,
      "▁Star": 7081,
      "▁dam": 7082,
      "gas": 7083,
      "Work": 7084,
      "rics": 7085,
      "}),": 7086,
      "orith": 7087,
      "▁conta": 7088,
      "expect": 7089,
      "ME": 7090,
      "▁farm": 7091,
      "'),": 7092,
      "▁votes": 7093,
      "▁currently": 7094,
      "▁rock": 7095,
      "▁accep": 7096,
      "یک": 7097,
      "itary": 7098,
      "iring": 7099,
      "look": 7100,
      "}$.": 7101,
      "▁Produ": 7102,
      "▁interesting": 7103,
      "ショ": 7104,
      "mem": 7105,
      "▁exam": 7106,
      "▁distribution": 7107,
      "▁sales": 7108,
      "▁einen": 7109,
      "▁Cook": 7110,
      "▁aber": 7111,
      "▁miles": 7112,
      "care": 7113,
      "toString": 7114,
      "pc": 7115,
      "idence": 7116,
      "ffect": 7117,
      "▁Ext": 7118,
      "ores": 7119,
      "eral": 7120,
      "▁är": 7121,
      "Home": 7122,
      "vc": 7123,
      "▁peace": 7124,
      "rait": 7125,
      "rank": 7126,
      "▁Paris": 7127,
      "▁gal": 7128,
      "▁emo": 7129,
      "▁William": 7130,
      "aturday": 7131,
      "▁spe": 7132,
      "▁implement": 7133,
      "▁platform": 7134,
      "Que": 7135,
      "amento": 7136,
      "▁arr": 7137,
      "▁customers": 7138,
      "container": 7139,
      "lichen": 7140,
      "eck": 7141,
      "▁Sil": 7142,
      "rf": 7143,
      "یر": 7144,
      "▁LE": 7145,
      "ervation": 7146,
      "▁agree": 7147,
      "▁station": 7148,
      "▁British": 7149,
      "▁initi": 7150,
      "▁degree": 7151,
      "imo": 7152,
      "▁Ham": 7153,
      "▁helps": 7154,
      "cting": 7155,
      "ße": 7156,
      "ibility": 7157,
      "▁Cla": 7158,
      "▁Kar": 7159,
      "▁^": 7160,
      "▁steps": 7161,
      "Are": 7162,
      "Position": 7163,
      "▁Den": 7164,
      "▁nation": 7165,
      "▁thinking": 7166,
      "▁celebr": 7167,
      "▁dalam": 7168,
      "ige": 7169,
      "▁ス": 7170,
      "works": 7171,
      "common": 7172,
      "missions": 7173,
      "▁pad": 7174,
      "Person": 7175,
      "▁hier": 7176,
      "▁uses": 7177,
      "гу": 7178,
      "aga": 7179,
      "$-": 7180,
      "▁bow": 7181,
      "▁drink": 7182,
      "Bio": 7183,
      "dit": 7184,
      "▁middle": 7185,
      "tick": 7186,
      "▁execu": 7187,
      "iki": 7188,
      "▁\"\";": 7189,
      "▁cup": 7190,
      "bat": 7191,
      "eth": 7192,
      "ượ": 7193,
      "▁filter": 7194,
      "akes": 7195,
      "izes": 7196,
      "▁disease": 7197,
      "Version": 7198,
      "▁neu": 7199,
      "tection": 7200,
      "▁king": 7201,
      "het": 7202,
      "ATA": 7203,
      "umns": 7204,
      "▁Every": 7205,
      "▁passed": 7206,
      "ustain": 7207,
      "utri": 7208,
      "▁broad": 7209,
      "▁noch": 7210,
      "▁Business": 7211,
      "▁solo": 7212,
      "▁ao": 7213,
      "▁gl": 7214,
      "▁má": 7215,
      "bul": 7216,
      "▁tool": 7217,
      "enen": 7218,
      "▁Management": 7219,
      "arios": 7220,
      ".</": 7221,
      "▁interface": 7222,
      ">(": 7223,
      "▁capa": 7224,
      "».": 7225,
      "Ac": 7226,
      "▁Prin": 7227,
      "▁Hen": 7228,
      "Book": 7229,
      "▁Facebook": 7230,
      "thentic": 7231,
      "▁gel": 7232,
      "▁central": 7233,
      "▁ki": 7234,
      "ament": 7235,
      "component": 7236,
      "href": 7237,
      "utter": 7238,
      "rowser": 7239,
      "▁PL": 7240,
      "▁ble": 7241,
      "template": 7242,
      "▁Son": 7243,
      "▁IV": 7244,
      "amer": 7245,
      "itz": 7246,
      "fier": 7247,
      "▁Start": 7248,
      "▁nel": 7249,
      "tx": 7250,
      "▁opportunity": 7251,
      "▁session": 7252,
      "▁USA": 7253,
      "▁supply": 7254,
      "vs": 7255,
      "FR": 7256,
      "▁functions": 7257,
      "pring": 7258,
      "inc": 7259,
      "▁reply": 7260,
      "MP": 7261,
      "done": 7262,
      "▁slight": 7263,
      "ias": 7264,
      "hibi": 7265,
      "Background": 7266,
      "uta": 7267,
      "▁strength": 7268,
      "▁Cho": 7269,
      "bla": 7270,
      "▁hay": 7271,
      "▁Found": 7272,
      "reek": 7273,
      "▁extreme": 7274,
      "▁useful": 7275,
      "▁hus": 7276,
      "▁rich": 7277,
      "▁Max": 7278,
      "Header": 7279,
      "▁rot": 7280,
      "▁ker": 7281,
      "stop": 7282,
      "byte": 7283,
      "grid": 7284,
      "▁Down": 7285,
      "tech": 7286,
      "▁sed": 7287,
      "▁SP": 7288,
      "▁speak": 7289,
      "▁quickly": 7290,
      "спо": 7291,
      "▁Smith": 7292,
      "anto": 7293,
      "▁Vis": 7294,
      "▁ž": 7295,
      "quer": 7296,
      "▁pages": 7297,
      "اس": 7298,
      "ae": 7299,
      "ection": 7300,
      "aughter": 7301,
      "▁reve": 7302,
      "▁Alex": 7303,
      "▁Figure": 7304,
      "Window": 7305,
      "▁accomp": 7306,
      "▁па": 7307,
      "▁Wil": 7308,
      "jar": 7309,
      "example": 7310,
      "▁mini": 7311,
      "▁tut": 7312,
      "ification": 7313,
      "TP": 7314,
      "estival": 7315,
      "▁poster": 7316,
      "▁…": 7317,
      "arian": 7318,
      "▁Create": 7319,
      "▁ब": 7320,
      "▁Tor": 7321,
      "▁completely": 7322,
      "▁tend": 7323,
      "Player": 7324,
      "items": 7325,
      "atively": 7326,
      "▁pet": 7327,
      "road": 7328,
      "Application": 7329,
      "shi": 7330,
      "▁reci": 7331,
      "▁wasn": 7332,
      "only": 7333,
      "▁Gal": 7334,
      "▁Im": 7335,
      "▁Mrs": 7336,
      "▁closed": 7337,
      "gel": 7338,
      "▁register": 7339,
      "▁projects": 7340,
      "▁を": 7341,
      "▁Jer": 7342,
      "▁neigh": 7343,
      "▁movie": 7344,
      "▁mix": 7345,
      "▁Mid": 7346,
      "mons": 7347,
      "Init": 7348,
      "！”": 7349,
      "▁histor": 7350,
      "uto": 7351,
      "ibrary": 7352,
      "▁wea": 7353,
      "▁Best": 7354,
      "▁poly": 7355,
      "▁rent": 7356,
      "▁Exper": 7357,
      "▁amazing": 7358,
      "filepath": 7359,
      "stro": 7360,
      "vat": 7361,
      "▁plans": 7362,
      "conf": 7363,
      "mbre": 7364,
      "rick": 7365,
      "Day": 7366,
      "▁symp": 7367,
      "äl": 7368,
      "▁corre": 7369,
      "▁primer": 7370,
      "▁Journal": 7371,
      "secon": 7372,
      "▁George": 7373,
      "▁ability": 7374,
      "ша": 7375,
      "Copy": 7376,
      "▁Love": 7377,
      "▁recently": 7378,
      "REF": 7379,
      "Yeah": 7380,
      "ensive": 7381,
      "▁fully": 7382,
      "pret": 7383,
      "white": 7384,
      "▁giving": 7385,
      "▁intel": 7386,
      "▁storage": 7387,
      "рова": 7388,
      "▁пере": 7389,
      "▁BE": 7390,
      "▁colle": 7391,
      "Auth": 7392,
      "ideos": 7393,
      "▁الت": 7394,
      "tivo": 7395,
      "GB": 7396,
      "▁ע": 7397,
      "اه": 7398,
      "teur": 7399,
      "ún": 7400,
      "▁secret": 7401,
      "▁Box": 7402,
      "ков": 7403,
      "▁died": 7404,
      "▁hous": 7405,
      "▁Ko": 7406,
      "//\r": 7407,
      "▁ring": 7408,
      "Then": 7409,
      "Details": 7410,
      "inde": 7411,
      "tempt": 7412,
      "jour": 7413,
      "goto": 7414,
      "▁і": 7415,
      "▁Flo": 7416,
      "pto": 7417,
      "▁exception": 7418,
      "▁glo": 7419,
      "rency": 7420,
      "gun": 7421,
      "▁repe": 7422,
      "▁kön": 7423,
      "png": 7424,
      "▁CL": 7425,
      "▁render": 7426,
      "▁meta": 7427,
      "equals": 7428,
      "▁،": 7429,
      "▁Ali": 7430,
      "▁appreci": 7431,
      "▁street": 7432,
      "▁ensure": 7433,
      "BE": 7434,
      "▁factor": 7435,
      "alah": 7436,
      "kat": 7437,
      "▁dit": 7438,
      "sión": 7439,
      "▁fear": 7440,
      "▁park": 7441,
      "children": 7442,
      "▁master": 7443,
      "Les": 7444,
      "▁Sun": 7445,
      "▁Bur": 7446,
      "▁''": 7447,
      "▁Cas": 7448,
      "という": 7449,
      "▁batter": 7450,
      "▁hop": 7451,
      "пу": 7452,
      "▁conver": 7453,
      "▁hospital": 7454,
      "eau": 7455,
      "igation": 7456,
      "▁Under": 7457,
      "lugin": 7458,
      "ulate": 7459,
      "▁career": 7460,
      "\")]": 7461,
      ">();": 7462,
      "imagen": 7463,
      "▁guess": 7464,
      "▁Sele": 7465,
      "Cap": 7466,
      "▁casa": 7467,
      "▁sab": 7468,
      "▁Services": 7469,
      "Save": 7470,
      "▁todos": 7471,
      "▁Gen": 7472,
      "▁Mary": 7473,
      "▁doll": 7474,
      "▁highly": 7475,
      "rive": 7476,
      "ità": 7477,
      "▁Cer": 7478,
      "▁shape": 7479,
      "empty": 7480,
      "ourse": 7481,
      "▁Education": 7482,
      "▁survi": 7483,
      "gb": 7484,
      "ih": 7485,
      "▁url": 7486,
      "▁Map": 7487,
      "▁psy": 7488,
      "▁beginning": 7489,
      "▁ин": 7490,
      "bind": 7491,
      "▁puede": 7492,
      "▁requirements": 7493,
      "gni": 7494,
      "▁muy": 7495,
      "ết": 7496,
      "▁..": 7497,
      "ême": 7498,
      "window": 7499,
      "ategories": 7500,
      "▁prices": 7501,
      "▁Ok": 7502,
      "sin": 7503,
      "ENC": 7504,
      "padding": 7505,
      "▁Sc": 7506,
      "VAL": 7507,
      "▁einem": 7508,
      "▁ship": 7509,
      "Ben": 7510,
      "power": 7511,
      "▁stress": 7512,
      "لی": 7513,
      "wired": 7514,
      "IK": 7515,
      "▁ज": 7516,
      "▁Big": 7517,
      "bio": 7518,
      "uff": 7519,
      "ects": 7520,
      "Sm": 7521,
      "▁happened": 7522,
      "+\\": 7523,
      "▁Social": 7524,
      "'],": 7525,
      "tml": 7526,
      "cam": 7527,
      "▁plain": 7528,
      "onds": 7529,
      "fast": 7530,
      "写真": 7531,
      "iga": 7532,
      "▁PC": 7533,
      "theta": 7534,
      "▁assess": 7535,
      "▁Thomas": 7536,
      "marks": 7537,
      "Server": 7538,
      "▁forms": 7539,
      "вет": 7540,
      "▁hundred": 7541,
      "admin": 7542,
      "oi": 7543,
      "▁immediately": 7544,
      "price": 7545,
      "▁although": 7546,
      "▁على": 7547,
      "▁š": 7548,
      "▁factors": 7549,
      "▁smart": 7550,
      "ACE": 7551,
      "▁Development": 7552,
      "weight": 7553,
      "▁notice": 7554,
      "▁Sign": 7555,
      "icial": 7556,
      "▁Aus": 7557,
      "▁wur": 7558,
      "Features": 7559,
      "liance": 7560,
      "من": 7561,
      "▁Committee": 7562,
      "ップ": 7563,
      "ço": 7564,
      "▁born": 7565,
      "ithub": 7566,
      "!”": 7567,
      "cdot": 7568,
      "FE": 7569,
      "Api": 7570,
      "▁wild": 7571,
      "▁Control": 7572,
      "ikan": 7573,
      "Great": 7574,
      "▁[];": 7575,
      "▁Tre": 7576,
      "▁Run": 7577,
      "▁न": 7578,
      "▁ми": 7579,
      "sv": 7580,
      "▁Tex": 7581,
      "▁Roy": 7582,
      "','": 7583,
      "wide": 7584,
      "RL": 7585,
      "▁Lat": 7586,
      "Si": 7587,
      "atalog": 7588,
      "don": 7589,
      "▁column": 7590,
      "dot": 7591,
      "usa": 7592,
      "▁thank": 7593,
      "▁schools": 7594,
      "Sa": 7595,
      "▁sold": 7596,
      "allow": 7597,
      "nother": 7598,
      "▁followed": 7599,
      "▁Ann": 7600,
      "▁}^{": 7601,
      "Enable": 7602,
      "Widget": 7603,
      "Connection": 7604,
      "▁drop": 7605,
      "itas": 7606,
      "▁lan": 7607,
      "▁Pan": 7608,
      "сте": 7609,
      "$(": 7610,
      "▁itu": 7611,
      "▁inde": 7612,
      "▁contract": 7613,
      "▁Object": 7614,
      "▁encou": 7615,
      "▁وال": 7616,
      "term": 7617,
      "generated": 7618,
      "▁tidak": 7619,
      "▁Windows": 7620,
      "▁ア": 7621,
      "Notes": 7622,
      "▁Oper": 7623,
      "▁whom": 7624,
      "Did": 7625,
      "▁indi": 7626,
      "▁kann": 7627,
      "anging": 7628,
      "äh": 7629,
      "ור": 7630,
      "▁compared": 7631,
      "screen": 7632,
      "uten": 7633,
      "values": 7634,
      "▁mobile": 7635,
      "▁spea": 7636,
      "рав": 7637,
      "clusions": 7638,
      "Each": 7639,
      "▁Blue": 7640,
      "life": 7641,
      "ributed": 7642,
      "▁Twitter": 7643,
      "match": 7644,
      ")),": 7645,
      "Py": 7646,
      "▁AS": 7647,
      "▁Ja": 7648,
      "nov": 7649,
      "▁firm": 7650,
      "▁views": 7651,
      "▁plants": 7652,
      "▁mel": 7653,
      "▁ле": 7654,
      "？”": 7655,
      "Part": 7656,
      "▁Л": 7657,
      "▁programs": 7658,
      "▁presented": 7659,
      "▁fue": 7660,
      "rus": 7661,
      "▁False": 7662,
      "Sk": 7663,
      "▁Mit": 7664,
      "wal": 7665,
      "За": 7666,
      "▁mac": 7667,
      "▁ku": 7668,
      "▁maybe": 7669,
      "でき": 7670,
      "Refer": 7671,
      "element": 7672,
      "▁straight": 7673,
      "ingu": 7674,
      "▁dim": 7675,
      "▁Base": 7676,
      "await": 7677,
      "handle": 7678,
      "▁patient": 7679,
      "Full": 7680,
      "jos": 7681,
      "▁sua": 7682,
      "▁Show": 7683,
      "يد": 7684,
      "Autowired": 7685,
      "▁Vo": 7686,
      "тов": 7687,
      "▁instr": 7688,
      "äng": 7689,
      "Icon": 7690,
      "mages": 7691,
      "property": 7692,
      "就是": 7693,
      "▁except": 7694,
      "▁progress": 7695,
      "este": 7696,
      "▁decided": 7697,
      "mad": 7698,
[...]
